node {
  name: "rnet/input"
  op: "Placeholder"
  attr {
    key: "dtype"
    value {
      type: DT_FLOAT
    }
  }
  attr {
    key: "shape"
    value {
      shape {
        dim {
          size: -1
        }
        dim {
          size: 24
        }
        dim {
          size: 24
        }
        dim {
          size: 3
        }
      }
    }
  }
}
node {
  name: "rnet/conv1/weights"
  op: "Const"
  attr {
    key: "dtype"
    value {
      type: DT_FLOAT
    }
  }
  attr {
    key: "value"
    value {
      tensor {
        dtype: DT_FLOAT
        tensor_shape {
          dim {
            size: 3
          }
          dim {
            size: 3
          }
          dim {
            size: 3
          }
          dim {
            size: 28
          }
        }
        tensor_content: "\310\316\000\277\266(q\275V\332\267\276;0\303>\035\2703\275f\213\257\275$\300\327=QQ\206\276+\016\204>\276.\242\276\252\220\366=\025/7\276\216W\003=q\253`=t\321s>U\033\346\276\324\272x\274\311x#\277\366\2543\276\304\322\016?\257\351\261>\227\031\316>l]\241\276\237{\030>\324\252V=\261v\246>~\315V\275S\377\271>\007V\314\276\365\263\033\276\232\317\225\276\301\212\257>\320\300\226>\305\037\032\276G\2520\275[\315g\276\365@n>W\300_>\214\271P=\322\300\302>Qy3\276\324\340\022>\342\235U>\252&D\276\261\227H\275\3764\254\276\234\260g=\234\361h\276`/g>\000Bt>b\301\241\276\373\347\362=\003\232\360=\257\314\244>`\244\n\276\335\317\247>\251\220\233\276~\332\333\275Y\262\200\276\016\343\227>l\253;\276\243\304\336\275\010\322\014<\370u\021\276\377\005\205>\356v8=\033\r\314=2v\245\274\357\003+>\031-\025>\357\t\014>\020\200m\276\033\004}\275]\242g\276\0045\373=2\275\244\276\315\272@>\r.\024>\262\017\246\276\360\000\252=R\027\341=c\037\206>\342\007[\275syb>nY\321\276\255/\323\276\r\327w\275t\231#>\230\014\223\275t\207\321>\334\203f>iP\307\2769\371\272>\277\261`\276C\251\224\276\305\024\276\274\233\345&>\303\362\027=EU\231\276\337\237G\276\022\244\245>\216\330\373\275\302X\375\275&\232\252=\036\347\321=([\247>\373\331M\276\310G\236\275\"\3526\276\223\n\211>\360[q\275\3506}>\033\335\227\276wUn\276\017\367\027:\206\2618>\372\273e>\206g\300>\n\232\312\275\020t\237\276\014=\273>?\261o>\264\206\273\276\227w\310>\016\354\264\276DK\376=\203\330\230\276\3236[=\241\r\201>k\346\245\275<\016\254=\260\027\"\275c\300\221=\323\007K>\t\340I\276>\312\366\275\257g+\276L\243\210>\215\371\364\275\343/~>\3114N\276\250X\360\275\362\3564\274\363\"\374=?\266\177\276\215\007\267>,\264\351\275\325jh\276\312\314\227>2\315\320=\3625\224\276\367Y\223<\200O\321=\2254\376=r\307a\276YG\256\274\025\322\217>$\3508\275\021\251\004>\374C_\275\247\340\367<\357\370\352=\245\'B\276>\271\366\275\225l3\276\267\2368>\2572t<@j<>\341\253\225\276]\r:>\030\230\215>\330\2000\275\326\021\326\274*\237\226\276\002\342\275>\373}\271\276yB:=\014!\252\276\277\367\214\276e\010G\276\327\021X>;,\345\274\317\261\223=\355\260\246=\203~\300>\225\315\326>\211\353\013\276&\201\277\276NH\215\276d\212\244>8\262b\275\027\212s\276\310}\350=Q\235\216>V\362\305\274\026\321F=\244t<\276\013\307\322>\001\224\177>\210\247\270;\325/\210>\362\032\205\276\234\345\237\275\234\271\236\276\353(\310=\200\0365>\227\306\252\276Un^>u\241\237\276]\221\225<\303n\236=X\316\217>\n\274[>cqI>\246\360\202=\016\340C>w\034X\276x62>\221\257\242\275\243/\217\276~\240\207=\275@\220>\035\342\242\275\024\"\"=\003\024\316\275\232\312\005?\345\n6>\271\270Q\275i\2710\2765\332R\276\341\3101\276\325\n~\276\336\032J\275\344\313\272=\221Bp\276T`\263\275+\r\267=\32670<S\331\214=\373q7>\037\347\215>{0\033>\332i\257=\327=4>\321\234/\276\235l\002>\331\216J\275\305jn\276~AC<\275E<>M$\210=6e\260;\035\225\232<\026\216\320>\340<\336\276\350\344\243\276\335\345\215\275\216L8\276g\331\022\276~\376\020>kA\251>_\233\221\276g\007\221>\034\222\251\276\240\371\330=Gi\206=c\t\272>\245\332\023\275\004\215\331\276U]\356\276+dj\27685\r?\243\\\306>\277m\307=\354\367\021?\262\177\367=\201\027\207\276\216@\005\276\372\024\253\275n\200u>\244GU\275\261\344f>~\302\234\276Ys\253\276\'h\214>\261\222\201\276\235\371\210\273\236\265?>\0242}>y\254\220>\367y\225>A]A>\035\"E\276\232s->\353,\255>b\255\236=\005\237\303\276z\244\213\276\210@&=\007+\200\276N0\213>b#\267<B\355\375>v\212\'>B\252d\276\366\221\352\275\210l#\276\204q\205>\032(\320\274n#R> \334\204\276M(\231\276}Z\\\276\225\261I\276\244D\030>\013\'I>\361\235\225>\016\366->\203\376\235>O\212G\276\307\265+>\346R;>\256\232\224>\037\367\033\275\363\206\252\276\244pA\276\275\313\025>\257\350\232\276\254\372o>\226C\331;&;\334>C\031\364=8iB\276\222\203\336\275\217q\227\275\036\246s>\245EO=-5\362\276\273\321\370\274\2215$\277M!\t=\313\361\365>oi\217=\'\327\210\273\344\252\003=p\257\247\276\355S\226=\257\")\2765_q>\014\346\005=0\334\036\2774$P>\241f\360\274o\310`=rU\016\276\3026\027\275\353\226\022=\005i\267\274IZ\375>\000\220\362>\010\206?>N\001\003\275\035e\032\276\312\210%\275\321*\262\274\202\333\320\276\357\200\257=\344\323\021\277\340\353\233>\246[\350>\223\317\227\275X\230\250=\265\314\315\274\326\315\030>Z\022\225=\236\033a>1d\305\276O\214\t>\247A&\277\376#\227>MW\237\275\352\270\002=W\352\312=\252\"K\274\307O\022=4ht\275r5\333>\252@\360>\263\325O>C:f;u\334C\276\201\222*=Rd\241;\223\036\301\276J\260\225=\276P\003\277\252\031P\276\261\310\344>\362$\353\274\341o\303=\036l\014\275\327\227\252=Q\016\274=\227I\023\276\2717\314=\005\256\027>R\035\376\276O\r+>\303m:\275\363K\216=\267g,>B\016\201=\021\354&<\036Z\207\275pP\277>\351&\326>_\316G><i\357\273\275i:\275z\\~=:\313\n>\016C\250\276\027\034\315>,3\332\275\214\221q\275\036\n\257\276c\021q>\223#\000\276\254\201\242\276f\021\263\276^J\220\276\004-a\276\353)\204>\271\025\024\275N\332\221>kt\3608|\034\253>%k\361>%\306i\276\\I\376\276\237\370\307\276\235\240\014=\334\034<>*\030-=\262\347\305=B\244\022<\262\366\035\276\320\203n\276\266\354Y=NR\340\275\305a\310>\024P\224\275\001\343b>\0252\222\276\304\023\262\275i\333{\275B>\222\276w\217B>!\250\223\276f\330(>D\262\301\276\336\r\304<\352(\212>EF\275=\025sB>\257\244q>1\001\277;\260(P>\004\331\231\276\316\272\206\273\024J\313=+\213\373\273z\000\035<\270\214\"=le?\276c+!\276\r\244\313=\212gh\275\345\366\242>\356\004F\275=Ty\276\325 j\276~\260/\276\355R\204\2753\365\237\276\244\203\037>\022b\220\276S\340\024\2769\004R=\234\024\316<\213\"\232>P{\003\275\373\344U>\246\264M>\344\324,=\275\202\211>M\307a\276\322(\264;p\010\302=yl\000\275G\220\315;\363E\334<;=\235\274u\032\r\276e\350\302>\367\252\346>\262!\266\276:\010\023=\t\376\016\276Tc\273\275\256\214\363\276\004O\326>5i;\275\022\013\261\276}\336R>\263\363\246\275\237\330v=\363\316\"=1\032+>\036N\206>\340\336\254\276N`\204\276\274\245\215\276:z\350>\004\274\272>\336\344\375\276\333jR\276T\202\370\276\t/4\276\342e\177\276\241\224\237=p\222\246\275V\242t>\'\257\006>7\223o\276\316\0009\274r\333\201>?\345\013\276\322\023\236\275C\006\330>\317\277/\276\260Yw>nbU>\222J\270>\252\273d\276)\220\336=\374\342\022>\371\274@>l\021\364\275V\"\031\276\310\212\376\273\3435I\276\365z\212>\tY\252\276=\250U\276\272\353\263\276Ih\032\276\021\216~\276>$\010<\207\264;\275\374?^>b\267\212<?\n-\276\217\"\262\273\204\360\017\276\3051\024\276d\372\013>\264$\251>)\365\327\275\001\316&>\276$P>\335\001\"\275\351\253(>\2633\345=x\216\232=L\362T=\227\257\236\275-\225\035\276gF\252=\244\027_\2767\303Y>y\021q\276\315\036A\276g\313\247\276N\215\024\276\322\255-\276\210\351\177=?\021\206<\217\244\305>\035\025\242>Q\025\005\274`\323\227>\002\203\216\275?\246\224>f\241\374\273\376W\\>\322H\243\276\016\210\305\276\014\260\220>\316\371\373\274\220\022;>\215$\326\273\260\333\310\276y\353/=\260Q\241\276%&\333=\261\311\237\275\257 $\276\340\271\376\275\n4\260\276\030E\234\276\317o\001\275\275\265\342>\301\311~\276\261\027$;\224\t\331\276!b\207>\010\224\">\017H\203=\250\231\223>\010\207\201>\017\375\221>N\350\215=\377\373r>\213\306\303\276\264\'\363=\313\025\235>\352\376\217>y\033\271\276\177\312\216=\363\272\314\276\036\021\374:p\331}\276C\307\247=\352\273$>\007\000\223\274M\231\365\275\3264\022\276\371\322r\276[\302B=\327\372\365>\331\306[\276\026\223\334\274c\000\246\276\007\302\202>\272\363\003=\270\330\210=>7\242>\272\256A\276f\343t>n\332\037>\021\275\027>\346\375\237\276\260h\242=\271,\205>\200\321\330\275\030s\370=MP\222=\364\260\244\276r\336\370\275\361\233g\276\350]\232=\007MY>CF\246=\210\303\004\276\2502B\275\001\345N\276\034\377\354<Z\345\354>!\321\033\276\300\326\242=c,x\276\324\253\235>\014\346\002\276da}>6\341m>A\217.\275\321\315&\276\266,#>;Q\245=\261\377\206\276\034\335\242\276\254\"\203\275L\t\376\275\311\034P>g\"\312\275\274\313c>[\241#\276b\370\332=F]\345>Eu\352\275\244\253\362\276\017\364\277\276\250\257\211\276\261\346\327\275\020(\335=wv\217\276n\315\243\276\210v\214\275G\205\306\276\223\221/>:\032\212\2750jT>5\2515>\207\'\215>K\313\320\275L\241\354\272\327\231\245=\206PE\276N\230t>J\273\323\274\377\255<>,\354\230\276\204\261o\275f\033u>a\035\030\276\272\005\000=%\267m>\272\322\356=k\342k>\3761\224\276\245/\314\275\252\377\216\275\272\003\320=\246\255\273\276\2621\207\276oF\230\275\237:\233\276Q\275.>\016C\'\276M^(>\200NN>\206m-\276{\360\365\275+\221O\275_\016{;\316/\316\275\272\305q>\006\r\371\275\277\225 \276\332\021\301=(9\203\275G\002p>w\364\177\276\313\305.\273q\240O>>\304\004>\003\341\231>iDW\276\252K1\274\345\255\315\272Z\0367=\'\010\245\276g\356Z\276<\376v=\370\242\203\276"
      }
    }
  }
}
node {
  name: "rnet/conv1/weights/read"
  op: "Identity"
  input: "rnet/conv1/weights"
  attr {
    key: "T"
    value {
      type: DT_FLOAT
    }
  }
  attr {
    key: "_class"
    value {
      list {
        s: "loc:@rnet/conv1/weights"
      }
    }
  }
}
node {
  name: "rnet/conv1/Conv2D"
  op: "Conv2D"
  input: "rnet/input"
  input: "rnet/conv1/weights/read"
  attr {
    key: "T"
    value {
      type: DT_FLOAT
    }
  }
  attr {
    key: "data_format"
    value {
      s: "NHWC"
    }
  }
  attr {
    key: "dilations"
    value {
      list {
        i: 1
        i: 1
        i: 1
        i: 1
      }
    }
  }
  attr {
    key: "padding"
    value {
      s: "VALID"
    }
  }
  attr {
    key: "strides"
    value {
      list {
        i: 1
        i: 1
        i: 1
        i: 1
      }
    }
  }
  attr {
    key: "use_cudnn_on_gpu"
    value {
      b: true
    }
  }
}
node {
  name: "rnet/conv1/biases"
  op: "Const"
  attr {
    key: "dtype"
    value {
      type: DT_FLOAT
    }
  }
  attr {
    key: "value"
    value {
      tensor {
        dtype: DT_FLOAT
        tensor_shape {
          dim {
            size: 28
          }
        }
        tensor_content: "`\306\264\276C\264h=\345p\275\276IR1<\377\367\234=\363\255\326\273\365\034\001\275\'\013z\276\303x6:\nr\373>\025n\026<+I\323>\3248\241\276\257\336\244\275\201i\335<0<\334=\366\306\332\276\017\225\332=\312,\326>\271\317\226=\300i\003\272\370\257\r>\212\252\226<=\222\004>-\024\237;|\"\215\275s:\021\277\322\310\225\276"
      }
    }
  }
}
node {
  name: "rnet/conv1/biases/read"
  op: "Identity"
  input: "rnet/conv1/biases"
  attr {
    key: "T"
    value {
      type: DT_FLOAT
    }
  }
  attr {
    key: "_class"
    value {
      list {
        s: "loc:@rnet/conv1/biases"
      }
    }
  }
}
node {
  name: "rnet/conv1/BiasAdd"
  op: "BiasAdd"
  input: "rnet/conv1/Conv2D"
  input: "rnet/conv1/biases/read"
  attr {
    key: "T"
    value {
      type: DT_FLOAT
    }
  }
  attr {
    key: "data_format"
    value {
      s: "NHWC"
    }
  }
}
node {
  name: "rnet/prelu1/alpha"
  op: "Const"
  attr {
    key: "dtype"
    value {
      type: DT_FLOAT
    }
  }
  attr {
    key: "value"
    value {
      tensor {
        dtype: DT_FLOAT
        tensor_shape {
          dim {
            size: 28
          }
        }
        tensor_content: "w\332\245?\316\250\271=\277\265\001\276\223\373\312<y\255\226\276\346{\204=\242\217*<\273YE\276U\032\334>\355\334S?\214D\003>6\000\"\276\006\'\0319^\370\304=\336\372\321=\243)\017>\262\234\241?k&L\276\177\360\266\276\311\310\314\276d\326@>5^\315=}\353\216=*l\234=\270\3729=.\264&\277DB\231=\311,\267\275"
      }
    }
  }
}
node {
  name: "rnet/prelu1/alpha/read"
  op: "Identity"
  input: "rnet/prelu1/alpha"
  attr {
    key: "T"
    value {
      type: DT_FLOAT
    }
  }
  attr {
    key: "_class"
    value {
      list {
        s: "loc:@rnet/prelu1/alpha"
      }
    }
  }
}
node {
  name: "rnet/prelu1/Relu"
  op: "Relu"
  input: "rnet/conv1/BiasAdd"
  attr {
    key: "T"
    value {
      type: DT_FLOAT
    }
  }
}
node {
  name: "rnet/prelu1/Neg"
  op: "Neg"
  input: "rnet/conv1/BiasAdd"
  attr {
    key: "T"
    value {
      type: DT_FLOAT
    }
  }
}
node {
  name: "rnet/prelu1/Relu_1"
  op: "Relu"
  input: "rnet/prelu1/Neg"
  attr {
    key: "T"
    value {
      type: DT_FLOAT
    }
  }
}
node {
  name: "rnet/prelu1/Neg_1"
  op: "Neg"
  input: "rnet/prelu1/Relu_1"
  attr {
    key: "T"
    value {
      type: DT_FLOAT
    }
  }
}
node {
  name: "rnet/prelu1/Mul"
  op: "Mul"
  input: "rnet/prelu1/alpha/read"
  input: "rnet/prelu1/Neg_1"
  attr {
    key: "T"
    value {
      type: DT_FLOAT
    }
  }
}
node {
  name: "rnet/prelu1/add"
  op: "Add"
  input: "rnet/prelu1/Relu"
  input: "rnet/prelu1/Mul"
  attr {
    key: "T"
    value {
      type: DT_FLOAT
    }
  }
}
node {
  name: "rnet/pool1"
  op: "MaxPool"
  input: "rnet/prelu1/add"
  attr {
    key: "T"
    value {
      type: DT_FLOAT
    }
  }
  attr {
    key: "data_format"
    value {
      s: "NHWC"
    }
  }
  attr {
    key: "ksize"
    value {
      list {
        i: 1
        i: 3
        i: 3
        i: 1
      }
    }
  }
  attr {
    key: "padding"
    value {
      s: "SAME"
    }
  }
  attr {
    key: "strides"
    value {
      list {
        i: 1
        i: 2
        i: 2
        i: 1
      }
    }
  }
}
node {
  name: "rnet/conv2/weights"
  op: "Const"
  attr {
    key: "dtype"
    value {
      type: DT_FLOAT
    }
  }
  attr {
    key: "value"
    value {
      tensor {
        dtype: DT_FLOAT
        tensor_shape {
          dim {
            size: 3
          }
          dim {
            size: 3
          }
          dim {
            size: 28
          }
          dim {
            size: 48
          }
        }
        tensor_content: "\232\210i=\343%\027\275\325\366!>/;\177\274x\325\002\275\001hb\274j@\001;\247I<=x\026F\276f\005U\274\300\212D<\341\311\\<!\316\314\275\243\030\351<\252r\244>g\016\371=<\210\373\274!dY\275>_\033\276\351\212\372=q\355\214>\007L\263=\004|!\276\366\271%\275\342E\353<#P\344\275AC\223<\360\026\200;\236\324\242\274\207A\361\273\243\030\337=\202\340U<\332\376\214<\\0\273=\202\206\005\276\245\320\005=\354\253Z\274!\003\351=B%\035;Q\264\227\274F\210^\275\002kI\274z\275\300;2R\252\275\310\013\230\274\215\372\206=\031):\275L\356\240=\356\330\001\276\347\326d\275\201t\332\274\341\330\002;d\033\031\2751\232\030=0\273\312=\243\354\2159&\2333\2759\234i=<\230#=x\374p\275\215 \267\275\324\232\332\274\001[\002\276\2140y=\330\324]<\304\357\002\275.<\363\275J\352\253\275\227v\364\275Ae\016=\026\2618=\201\245\375\273\3360\313<\037\341\360<#\222\235\274[\276\034\275*/E\275\345\260\030\274\031H\267<4W\200=?\361:<\3767L>\373\376\310\274\307y\351\275ck\230\275\375>4>\327Z\323\275z8\333=?\332\020=\310\216\367\274\000\211\270<8z\345\275J\363%=\322hp\276\250\355\027\275\304\345-<\347\\\205\276691\275\366\214\326\274\244da\275\337@:\273\301I/\275\302\021\377\273\3322q\275\177\\\037=\330\036L\275\261\316\217\274M\315M=\0163g=\024\300\300=\364-P\276\231\260\317<\306*\307\275\374\033\325=\233\022y\272\322t\262\275^\200\262\275$B\350\271\225m\204=\'\257%=\213\224\t\276\335?F=!\2558\276\372\254z\275$k\021=\371\343\r\275\325\001\306=\234\201W\275\"\311?\273KA\213\2749\210\032>\272\242\207\273v\266\"<h\302\271\275o\356\330<\377\306Z=x^\222\274\330\331\343\274\240\204<\274\301\005\226<\357t\036\275\325\204\212<\347\370F\275\006u\255\274q\260\221=z\221\032\275k_[=\274Ml=\037\033\345\2751(\033\275\355\340\245;y\211-\273\365[\374\274\037n\307=U\3343=`\202p;\356\307\372\275cg\215;\001C\305\274q\201\237=C.\223\275|\353\222\275\235\264\264\275\014\305\234=sxZ=\\c(>\203\312\003\276\222L\257\274\033\000\264=&\317\032\276_\t\231<\222\272>>C\023\3449\305\373J\275q\206!\275\314\264O=\201\377\235=\243\363><\271\263X\275\374\004\363=\022\374a\274\232tb=\275\260+\275\225PA\276\264\267\247=\0304\007=\024\337\200\273\215,]\275\205\242\207\274\374U\r=%\340\031\275\231\352G\274\366\317\367<\260\374\316<\307\035m\274\304\014\025\276&\036\313\274\300\333\016=ct\335\274b`\203\273%\010\213=w\356\210<\211\177\237\275\240;\031=?\036\034=\354\276\317\2716\235A\2759\247\263<H\341\351\273\374\006\222\275\361\350\244\275\033F\"\274Z\006O\275Z\266\304<\257\356,<\300\016(;\025\260;;\007\377\304<\263~\304\274\264\302\253=Kc\200\275A/\213\275\332\023\200<0\314\200<:\251\265=\245.\024\275\273o\263;\245\226\256=;Lj\273@>\222\275,\273\267=\325\034=\274\324\256\245\275\354B\273\274\n\357\n>u\354\232\274\344\345z\274b\030G\274\244\210\034\275\371 \225=;\325\252\275\010\245h;\020\330\303\274{\017\342=\021T\355:\010\317\000<\366iv\275\260*4\274\320|\235\274\352H\037\275B\263\275=<\021\232\275B\'\263<J>3\276!\034s\275\326\037\005\275\3718\016=!\005\003\276\335\2003;\206H\030\276\241Q+=\356\377\200=\363]\274=lb\004\276\025aF\275\016G\270=\355\n\361<\223\036:\275\350\264\344\273\333\243I=\322U\267\274\201\2113=\274u\205:\362\330>\273<\373>\275NG\261\275\242(\024\274\222\324\034=\223t\207\274>\227i\275\361\033V\274\322\216?\275_X/\275Z\023\004\275\352u\207=*\031\203\275`\306|=&\2617<b\3771\275I\333\334\275V<\337;:&\223=\033]\240\273#\227\013<\203I\271<l\032]\274\331\307\215\274\224b\306;\326\264\036\274\020\rW;\356\213\257\274\001\340\007=\234~\271\275\265\227\226\274\216xl\275\356\002\310\274S\233\316<7\236\227\275~\002\200\275\327\200\322=\332\202\235=5\330\330;\004#\300;3\323\353\273\341\323\270;\346(\007\275\207CE=N`\037=\2456\240\275A\264$=\323wW=^\375\t\276\323\330)=\263\350\317\273\301g\362\273\370\0377<\343\\\033\273z^<=\325E\217\272\320\303\251<\307\211\234\2752\005\026=]\317\003\274i\341\017\275\242\343_<jW\n\275\202\241b;\310\325\251\274\374\321!\275\347\257\277;\0230\002\274\315\321\223\275*\372\301\275$#\000\276\2235\276={\334\313<\315\013H\275\205\030\277<\273\343\222\275s&S\274\212\231\201\276\341F\343<\023Q=\275\210;x<8\317\031=!\317\034\276\224\335\004\276\217\255\266=\263i\252=\320\250m\274\251#\336;\244\347\324\275]\315\223=\373{\244\275\247\317N=\300\002\035=\022\337H\276\016\201\306<\272L\373\274H\306?\276\332\tn\275\356\301z<v:\331\275\366\3757\276\371\347F=\271\2209=\203\340\005<\2431\261<*\373\203=?>W=\367 I<\305t\342\274\211Q\236\275\226\370\005\272g\300\306\275:\201\022<\215\327\244=\006@\017<\036n#<\200&T\274\232\306\264\275>\327\241\275\357\016\317=!\260n<\376\030\334<\275\272u=[\300}\275\034\315\003=n\016_\275\"\234)=\216E\225\275nQ\270\274\3065\322=\232\311\032>EU\262<\005r\210\274\003j\255\275or5\275v~\\=Z\241\"\275\370E\237={\325\'>\320\344\340=\307\310\227:M\2552\275\301ql=H\203\226<{V\001\274\230N\211\275`\275_=\266!_;h\003:<s\235i\275\340\257\262\275\311z\264\275\212\024a=\301f&\274\216\201\214\275\206\307\200\275\001\014}=\033\006\265<\237\301\362\272q\020\303\274,Yv>9S\264=\36243\276\376\345h\275\213s\037:\346\215B=\302\000\366\274\245B\213\274i\211o<\031\316V\276\372\377\321\275\036\2551\275K\300\315\275_\035\373=3d\265=I\003d=\311\032\366\275)\375(\276\3675\037>Apm=\355\023\002>\223\232\327\275\253\217\315<\356\203\213=\005\223\313=\010\244\003>\036\201\327=`\214\311\2752\230\223=\030Z\227\273\370\241\010>\240\346\354\275c\324\257<\\\201\013=\020\022\243=\206y(\274\275\013\177\275\247\023\311<p\'\340\274\320\331\244\275EN\\\2751\301\251>7\254\257<\357\374\211=|b6\275m\310\307=\366\372&=\005>\n\276q\323\233\274\322O\342\275@R\224=Pu\327<=\032\353<\352g\252=\0377\203\275e\3318\275\341\257\260\274}\257\025=\360\2445\274\2143\022<\236\334\302\275\273\313X\276\255\322\005;f\341\014<G\332\014=\003\264\315\274\322\211\361\275\305\325K\275 _e=\233=\320=\010Wy\275UuV\274\257\366x=B\253\262\275\000\2757\276\361\336\246\274^\3624<\277\230\220=k\260\202=\022\t\023\275\361z\276=2Bl\275\362\222/\276\370\"\314<J\312;>\021mi\2758K >\010\3222\275\376a\207\272\217\006\006\275@2\230\274\3114\306\273\370.\024\276\014\361\360\273p\177\213\272\362\217\033<[\343O>\206\260\337\273\303\227\002\276\270\245\310\275lb\244<\225\346\255<$\224\231<\300\016S=\211\354\000=\230\362\020\276\332\276=<\235\206\007\275@\242,=\350#^=!\264l\274\025\212\362<\017\r\026\276B5\343\275\022\235\305=F\354\224\273)\206\306<\004b\327\275\261\301\316\273\262Ew<\240CS;\350\347\305=\033\322\032<j&\321\275Q\020\022\274\345\310e\274nfl=\017\007\210<\301\367\234<\331\326\302\274\332\260\003\274\3217\246<\t\371&\275^X\226=\237\027?\275&\252Z\274\355\003\006\275\315\rU>LE\001<LT#<\363\003E<\010y5;\001~5:3\327\"\275\353!\263\275}DN=\033\034\321=\334\374\242\274\322:\317\274-\305\000\2754M\310\274iS\037\275,\221\\\275B#\270<(\332\247\274QL@=\275<c\275\"Hd\274\317l\323\2748\377\220<\207\263\311\274\366\256\217\275\320\345\362\274\211b\016=\314^\216=k$\020\275{0\207\274\213\020\227<\244K\233\274:\364F\275\2660\344=\313\177\006\276%I\272<5\005t=\222\\9\274}|m>\303\212\233\275\007\371\005=\353>\214=\227\205\254\272\227\303\246\273\323\305D\275\247$1\274\252M^\275\244\266\325<\305\345.\275=\000\010\272\335\207\203\273\376B\347<\263k\337\274\331\373\310=\303\000\027\273E\353\316\275\"\315\253\274\263@h=#\300q:Y/\253<\247\260(\275A\202-\275\334\003\n>\\\027\225\275[\321\360\274M\304%\271}\226\252\274\255\253\225\275\200\021\335\274\2128\353<+\356W\275O\316\223\274\223\357\232;}\276/\275[\321\004=\352\351\010=\303\215\340\272\356\364c\275F@\204=\330q\304\274\343\344\021\275\256-\305<pg\035=\020\206\004\275\271\233\000\274\235\237\375\274\350\236@=\333\375\326<\265\227\211<\375\034J={4(\274:<:=p\2629\275\t5\236\271:<6\275H\034g<\032\006\260<\317\353F\274\350\342P\274\347-\216\274\211F.=\353\315\001\274\3107\217\275\265\000\t=\022\223\205;\2511b=F\031M\2759\346\316={\376\217\275\033\363\344<\0103\245<\035+S<\272\312q=\276\257\271\275R@\240=7Im\275\346\006\\\276\006\266k=\205j\315=\016I\001\276:r\226\275\351\215M\275\240`\026\275\336[k\2745\265\211=\203>\264\275&\316}<_\025\233=\373m\251=h\'\272=\232\265\2068`\243\210\273D\216\350\274\317J\001=\267Z\r<d\341\240=\006\230a\275\304\215\266\275\215+I\275\303\206k<-\315\276\275\026m5\275\375\306\022\275X\216\266\271\216d\304\274\251\3130\275|\252\236=\372\364\267<wDm=R\036\014<\327\364\202=H\0325=_\236J=\354\366(<\270\265\225\275r\371c=\243\377|<\025h\000=k\232\215;\333\037\321=(\236T\275\233-s\275\324\177\257\275\276,\260\274\271\003\223=\221F\221=\367\022\372\274i\025L\275\331\367\232\275P\244\352=W0\345<i\344\020=\271@\002\276\360\307I<\237\245x<\315\205\224\274\250V\233<\332\204\247=sp\274\274\007;\340\274\235x\256\275\217o\257\274\036\271\362;)R\013\274\202ZS\275\260\235R>\362T\221\2748=\010=\326\351\341\273\206p\203\275ds\241<\024\351\324\274\373nl<n/t\275H\177\331<\272\231\370=\nm\212=\225A;;\317\347\334=\242\276\302\274\215D\273\275,\037\273<\326EF\275$|\200\2753\327\033=\275W\023\276\333\231\246=\033\236B\274?\315+=X]\253\274\345\311t\275v\244x\275\332NG\276\303\357\313<y]\362\274\223)N\275V\247\027=\233\370\003\276D\211\323\275.\301\301<\035\345\341\274\023\377o\274\320T|=\3545\006\273\314S\257={\305#\276\244\201\211\275\276 \013\275\205\254R\275\373\2517=\347\255\371<\300\361\350:W\307\336\275\304\202\241\275@\232+<>\234\227=\032ms<\013|\372=\232[r<\000\204\216=\244\221\244<\334\333c<\352\276O<\302\005\261\275\014\371z=D\n\017=\2771\206>\347\223\240=\340\"/\275\025E\014\275\223v\205=\351S(=!\260\275\275\223\311\274=\013~\341\273\013g\211\275\337\024W\275V\345\313\275@4\326<\021\2137\276\217\267{>\340\226\006>\323\214T>\020\361x\275\343C\325\2732Qf=\354O\t>/\236\263\275\023L\234\275\241g\233<X\364\006>\324\"J=\312N3>\300\207\216<+u\252\275P\207&=\354\206\251\274\347c\304\270\t\3718\275\344f\244=R3}\275\035x\271\274\272\224\327\274\275\325\265<vA5\275p\377\243\274l\353\231\275\\(S\275#\321>\275\276\334!\275f\322\246=~Z\r\275\2141f>\260\355\372\274\037\325\013<Fk\267\272\013\306?=\225\003\r\275H\337\\\274\r\203\304;\306\323\227<\354k\245\2747T\367<o\257\205\274A\021\001\276\214\306\206<}\024\240\274\262\016\020<\352@L\274\246\322\017=f\361\334\274\215\035\320\2752G\251\275`\234\001\275\367\330Q\274\313\233\003\275\177\243\305\274|\377\002\275\236\224=\275\236\261\222;\346a\213;{\035\326\273\3460\363\274-W`<\240C*=\345n\307<s/\221=\230.\317\274VA2=\312\213\222=+\326\201\272\272\343\250\274\010\033p=\321\234\304<V\t3\275\371u==\376\"\005>\3215d=4\266!=\314J\237=K\215\221\273i\311.=\325\305.\276\210\005\263\276\217\016\221\271\021\3770=\222P\240\274\204\261J=\332\272\214\275\244c;\275me\346\274\303W\022>L\331\200=\307\r\271<]\021\267=\"{3\273rHD\276\377\303\304=\363\r\223\274\363/\035\2756\247\320\274\212\tO\276s7\320\275\233J\275=\246.\210=\271z\270\272F\313c\275\302\356\014=\265]\365=w,\262=\361~\003>D\302\025\275<\301\247\275\356\341\267=\020\3633\275\003^Y\274\215+\240;\320\336\365\274\356\027\207\275\225z\311\272\361P\321<\032*L\274\306/\034\2755N\237\274\312\207\336\275\302a\"\275\022s\216<&\217\203<2\024\265<\004\007W=\010V+\275\323\213\340<w\263\004\276\364\032\016\274\333\334\303\274\265\333\373<u\177\210\275\236\351\216\274\036\302\000>\346fH\275g\304l=\342\370(\275\275\025\215=\226\330t\275\237\214.\276\276|\244=\007\212\370=NNS\273P\t\374=\363\300\232\274x\013\030=\232\347+\273\342\306\210=\272\350\341\275\311\236H\275\236\371]>2\246\007\274\006\025\326=\036\002\030<1\365\207<l\276\321\273\324;\256=\n\353)<\303\241\002=\026\367)\275\360z\347;?a\344\275\021\302)\275I\003\215\275\252v\365\274\035\3476\276\342On\2753\300O\275\245%\027\275\334d\t=\237\030\251=.\353\013>\244\034\001\275e4\027\276\201\3713\274\236\000\272;u\3727=?\370\020=\372A\254\273~\255\343<\255\204\025\276|(3=]M_=T\211\225\274\036\213\210=\016\037\000\276\307\035\353<\255\367\023\276`[\014\275\200\342\343\275<\300\007\275\356\361J=l\"\027=hPs\275t\330u=\300Nx\274\240\272\001\274\216\207\277=\013\230\001\276\253\335\264\274\270^\177=\221\215\271=I\375\022<\035\312\346\274\273\350X\274\007S0\275\355/9\275\264\001\236\275\231\232\025>ky*=\335\252\t;[B\027\274M4L=\032\325\004=0\336\014>\032\211\264<\2344\207=\254c1<\226\372\277<\275\333\367\275\341\026\'\275o| <\343f1=p\006\314=\226\351\027=ml\320\275t\367L\275*5\213=Q\315e\274\346\217\261\275\327I\336=2\'\t=\ng\250\275\326j\324\275\215\325~=\266\302\035\274\325,\355<|O\270\275\362\320L\275W\337[\276\362s\313=\tk\241\274\030\275+>E\327\342\275\314\362[<\220X\205=|\352Z\276kqJ;\267jq=S\357\323\274\343\230N\275\027\362\315\274\217\226^=y\352\207=\314,\316\273\0237f\275\262\370\013>\000\200Y=\257Pz<&i\177\275!\276=\276\267\261\351=\007\336&=)\270\265< \215\324\275.M\366<hvM\274\350~\335\274\356\206C<\367du\275l\201m\275\307\t\004\2754\235\365\273:U\362\274\276\030\357\274:X\242=k5\223\275!\343\312\274|YJ\275\371\322\271<X\264k\275~\375\014\276R/\336\274\317n\353\275#\331\343<\314\364\366\275\"\341y\275\372Zn\275\0059\227\275\365\233\301\275N\002\271=\222\314&=\324F\372\273ZR\300=\'QN\275Z\210@\275\343\277\274\275o7~\273C\010\240<W\264\t\275\216\337\230=p\260~;}Ga\275X\233\037\275fM\361\275\263\320\034\274\270d+>J\223\n\274l\361t<#\235\223=eK\202=\266\255^<\332\337\"<\266\274\t\274\242\036X\276\252\177C\274\304\334=\273w\323\301<)\031A=\371\314\021\275yNN=\203D\300\275\327\373W;\355\201\377:\365\330(=M\'?<\001N\026>\034\271\'<\245t\266\275\223\257#\275C\205\352\2748#!=\217\337\326<\004YD<Z\246\254\275-\003\202\275\177\203\016=M@*<\264\316\225<?\210\005\275?\024\206\275 D\007;c\267\026\2758r`\273\251\352\t>\013\030\301\273\256\343\232;|b\002\275[\300n<]\274\007=o\377\347\275?\270\314\274D\217M<^\014\355:Vw\t\275\205x\005\275\367D\203\275 \355\256<E\250\010<?\326 \275\021/\203\275;\001\330=\003y\334=I\020i=\036\314\264;\256)N=\232w\203\273\334\347a=\010!\237\275pJ\376\274\301\355x=\004X\r=\r$!<\260s\312\274\335\270\032=\255\r\263\273\347\304D;\010\317H\275\362\234\226<,\017\025>\262l(=\275y\267:Zy\347<\313Py\275\"=\263=d\372\256<ix\223=\303X\352\275t\331\016\275N~\226=\n\347;<\366\364\032\276\351\305U=\315\232\220\275\037\204s\274u\361M\273\356\251m;H\331\257\275i\322\375<p/u\275\333-+;+\360\212=\230J\"\2757\320\023\275\210\2706\274\031\213\334;\235\031\376=T\005\014>v\276\212\275\220\"\300<\231\371\026<r\022,\275\276\3173\275\263l\243=Y08\274\335\230\037=\377\006\322\2748\201\321<?^\203\275(z\037=\367:\257\274\236\321W\273I\3235<\363\004|<,\346#\276\000\351O\275v\211_\275i\303\000>\346\372\260=\240\343l=\3719\020\275d\312\270\274\030\320q\275\232\365\361<\211\253\343=#\211\322\275b\237\245\275\203\307J=\271\267\233=\023\330D=\315v \274\276V\2539v\355\027\275}\312\245\273\005-\234=4X\003<\236\363\306<}\241\303\272V?C;P\315\'\275\247y(=\355\034-\275\375.\330\274+%q\275\362\205\372<T\266\026<PS\312\273y\204\017=\335?\002\274|\023\220=\3275\r=3\226\006>{\344\302<o(F<\312N\213\275\325\243[\274fP\261\275\267>\226\275\023\343F=\353\336\274\275H\3471\275h\331\316<\337\202:=#\n\326=R\010\324\274\210y\257=\017\177\002\275}8\005>\377\204\302<)\3274\275\3149h\275\252\002\240;\335\026\311\275[\245\265;\325\333\006\275nk\212\275uq\256\275\213\221W;\325\307W\275O\362\022\276\267\302\206<\3510@<\373\246%\275>C3\274\025\007\337;\332\360\005\273~\032\226\275\321+\217=\253\232\217\274\0314\\\274r\204`\275\013WP\275C\251\367\275\343-9\275\"\023n\272\'$\347\273\022=\332\271\350\316\213\275\211\026\310\274mWm\275\301\225\020=h:@=@\030\316\274f\245\005\275+\271\004\275\313\3034<\373q4\274\036\n\231\275\325\323b\275\354\343i<\006\305-\275\200k`;\314\027\230;\304\274\177>Dd\305=/c\017=\014\340\225=\233\220\037</6\234=\330\3223>\315\263\305=\266M\262\274w\364D\275\257\303L\274\357/\007=\376<t\274\027\272p=\343\\\256;\010gd\275V\216/>FZq\274\002\215\255<\341-\365<x-\240\275N\"b=\200h\205=\215M\203=x\316,=Ky\225\275\270V\024\275\177\034\237\273\334\201h<^\022M\275z\203l\275jN*\273\317\020B\275y\310\275<\230\314\243=i\300\203\272V\031;\275;ry\274\277\221(<\010\373\221<\256\332\'>\343Ca<\324\222\367\274j\263\036<m\216\"\273\363\350R\274b$\021\274\223\245{<Z\255\374<eI\002\275\275\341l\274EU\236\274,i\"=\350\267y\275<\211\326\274>f-=\212O\001\274\2034\332\274V\373\237=(\201\023>p~,\276\321%\211\273,\343\256;\227\354\310\274\003~\314<\331\335I=\263\2212=q\235\317\275U\247{=A\252\023=\341]\350<1\"\327=/\262\t\275@\231\216\274\345CR=\360\240\332\273;\270\316<\033\302\365\275 \223\331<\207\230\264\275I\223\312\275-\322\347\274\211,\234\273\010u_\275I>\301\274\322d3\276\001\343\240\275\310\024\210\275??6\276\201\024\027\275\016\353F\275\307\237\374\275\316P\310\274H\002\000\275p\205\331\274wlI=\002\255\227\275v\212\227\275\030-\255\275}\003\217=A.(=\213u\343\274\223\320\007\275+]\374\274\255\345/\272\274<\267\274\227\374C\273N\331\302<_\214#\275-\261\275<\232\327y=q^\267<\313[\371:\001\373D\2759<C\274\347O\237\275`\247H=\030\265%\272z\201y=\374\257\352\275}\014\212</1\342<\021y\334\274\202\371\255\274\334\251\270=\2078\032=y\216\003\276\016\222\237\274\241Q\272\275\217F\326\274~%\n<\340\205\007\274\024\370\331<Jb\276<\024\016\256\275f+\022\275\240(\\\275\220\244;\275\236C\204\274\212\016\t=\202\315$<\352\240G\275D\334\207\2740P\265\273\364\266\242\274\326\362\214=\230H$\276\242\220}\273[\252-=<\304\255=\332\231/=\324\236\277=\224\030\320\275N\375\217<\311\010\336<*\271\226\275\023\222\001\273\265K\025>\327S\036\274\205o\241\2750\036\000=b\346S\275\273\226.=\2531z=\273\371\005\275V\n\354<x\353\322\275\202G;\274\307WJ\274d\246\355\275<n\222=\037\2153\275>\2235\275\323\345|\275\n2\322\274}\207\022=l\202\004\276\311\324\221\274\207v(;2\376\356\275\264\207\034=B#\251\275*\333\032<~\016G\274J \005<\302M)\275\241$\367;v]\314<\342\0101\275O\001M9\261\265\355\274\363\233\204\273\244\'\'\275\370r\353<u\276\016\274k\345\030\275\210\277W\275\207)t\274~e\245\275V\354\016=\341\251\335\274rN\"<\251\341\003\274hN\256<J\036A\274S\235\233;Eg^=U\271\307\273\252\327:<\035\335@\274\014i\260=\026\3558\275\252\255\320\274\337\304\245\271CD\256\274\235\225\025\275\322\263\242<,\203\202;\3435\326\274N\337\340\273-\2320>%X\037;u\"w\275m\371\207\274 \356\037\274\010\350\344=\004\367L:\001\3276;\202\316E\275\001\025\266=_\177\375=N\210\357=\213\256\200\275\327\026\310<\207}\3349\"\272\n\276\356U\242==7\240\275\367\362\250=\017\033/\276S?\243\275\255b_\274\344H\333<Ve\022\276R\367Z\275j\351\345\274\271\001)\275,\304K=\317\247\037=\200\001\331:\250\253\254<\303\217\220=\350<?\275rr\340\275\275\261\212<L\221\324\274\007\207\262\275b1~<&\272\241\274\310\370\246\274X\204\246\274\332\016\232=6\317\207\275x\344\234=o\305\007<\303\031M\275t\372\024\275\025\222\317\275\2335\233;\347u\263\275\004\265\036=\330\201\255\275*\365G=)m\302\273c\n\307;\216\013Y\275\204~\232<9N\224=:,y<\365K\301<g_R<\373\212\334\274\271;\241\274IRO=\006j\037=\231\254\n\275\351n?\274CO\020=\305\226\324\274\315\r\026\275\222<\307\275M(&\275\372\332U\275\247kE\2727#g\275\025\010\231=\010\376\016=#d\274<\202E\226<\007\0077\275\234\nC<)\203z\275C\215\033\274\247\204B<\342\007\221\275t/\313<G\356\352;\263\326:\275\010?@:2\225\311\270?#\356;\351w0;\260!\351\2744\017n<\006\311\034;\021\302o<O\363\215\275\274\315\001</S\315=\0327\263;\026(\207\272b\205\236\2740\275\271=\245\362\313;6+>\274\032\326a=br6\275\223\360m\275`m=\275\013\027G\2752%\343=\207\253\230=\377\371\233\274D\330J=i\375\361\274\316\206<\275l\234\326\275H\017\355\275\024\355\343\274\230y\357\274\203[\313\275\022HI\275 \263-\275K\014\245\274\245\207\r\275\266\250\246\274\305m:\275\230\264\235\275\201\036\276=\315\000n\275\207{a\274\335,K\274\027\222\004\276]W\240\274qWV\273\241\022\346\275-_\247\275\246\'\361<\337\301\342\275\352\345:\276\334\341i=\230\325\211==\363\335<)[Z<h$\310<\2703\256=\002\371\273=l\013\030=\277\352\002\274\024\346\261\2747\324v\275\0030A=\030!\330<\332\372w<\221\335\240\273\232\315n=I\205\370\275\373Y\244\275\371\323\273=\2145A\276\273\205,\275\306j\'\274@\246G=\316\001\243\274P\"P\275\314\354r=\217\245)<?Y\022<O\220\356=\214?\216<\366\272\016=\372\307\201<\265\320\013\273?\022\025<\225\006\313\274\024\262\322\274\272<\276=\332\247\367=\356\375l=U\215B=\211\333\256\274\006\321\313\275\310\334\326;_\023\230=Z\3135\275\017\364\352=`\230\324\275,\241<\274\262\360\255\273\316\327\234\275\302>\254\275\243\\I\275\300\303v\274\363\240U\274\201\305\214\273d\025\277=\207\371?\275\356\216j<\217\023\213;\374\242w\275\205\236\233=\352\313\331\275\302\251c\275\303\013\020;\334\310?=\177\036\255\275\211\245\251<\205;\241=\231(\002\276\340\253\001\275\034U9=h\017E;k\2161=X\214\347=\331\024\221\274\233\2508\275j\000\001\276\264y\r;\211\025\274:p1\342=\010\345}\275U\002\225=s:W\275\360\356>=\357`b=\r\332$=\355\213/=\261Y@;~7\270;\256~6\274\313\201\245\275!8\010=\017\\\375\274\265\243\317\275\005.\204\274\342\237\032\275\223\377\236=\003\257K\275\266\362W=\346!\257\274\333f\240>\234\0178\275\200]\327\274\251\356B\275\373\035j\275\204\250\226=E\201\307\274$3Y\275\201\003\341\275\200x\356<\002:B<\262\023\233<\\t\006>\003\r\325\273O\264Q\275~\275\301;\003:\021=\3179)<jL\267<L*\010=\260!i\275\377`\376\275\340\3531\2755\215\027\275(\351\257;\356?\003\276\353\216x=\253\367\275\273\034\316\305;\033\014\265\2742\334\332<.\336\215=\304\357\247\275M\221\246\275\014\310\210\2753\244\204=\\h\341\274(,\277<\245\231@\275\245\340\217\2753i\203\274#\211\356<^3\275=\375\013\376=\374cL\275\325c\271=W\322q<\262?_\273\376q\273\274\255\n\013\274k\3707=(_#\275e\002f\274gi\273;\370\022\022\274.\215Q8\370k\001=\333\247\013\275\375\n.\275\243\r\233\274a\240j<\331@\352\274F^\273<\215\225\250=\251_\322\275\"\021h\274\330?\342\274\223\326\257=\0170\305<v\336\'<8{\222<\016q\251\274\205\377\277\275Lo!=i\032\236\275!\007\230<K3\266\275[*\315\274\032\307\010\275\301\005\021=[\364E=\266\021\225;LS\253;\255\000\335\274)\006\360\273\302\036\005=FO\330\274\332\320\320\273\223+\332\274\036k\215\275D\221\237\273*\273\007\275\357vF=\347\000\311\274N7\226=k\276\362\273_\356n>y\272\033\273\'\342B\2742\235\267<\375\305\347\273dl\372<\253\030\007;\317&\264\275U`\005=!\017\013=\257\300\235;}\025\305<!`\216<e\\\364\274\337{Q\272\030vJ\274g\242p=RA\331\274C\252\214;\312\233\307\275mj\362\274Up\265\2749\314\356<R\233~\275\315\020t\275>\026W<k\372\335<t\005\334=K\032\016\275\371Zw=5\362\333;\255\001\017\275\r\026p;\364\226\013=\366\032\275\275\377\257=\274\246F\276<\330\235\304\274n\317H>j\251j\275\312\205\306<\315\027\252=\'d\377\273= \014\274\001\305]\2753\270P\274\246\340\234\275\177\231\304\273\\q\177;w\370\362;[\233\005\275cN\210\275;Q\007<\006f\317=\377\332l;\252m4\274>\024\365\273\204\207X=\017CR<.\215.<Zs\025;B\026\205\275?\033\335<\021\235/\273*JY\275\266\2152\275\271\364\207\272\332\362\204\275\234\007\345\274\305\013\263\274\300\225k\275\013\245\322\274\ny\363\273\212Z\206\275\201\307\301\274\374E\'=\267\274\r\274\034\274\331:n8{\274\267\001L:\232\020Y:\267\364><$\352Q\274\354\347\263\274B]\264\273\177=\322\274G;5=\374\312\022<\272L\027\274q\216\020<\373\235\002<\213m\333;\355\343\364;iL\276\274O\230\272\274\3132\245<\210\253<\275]|\365:!\227\003<\326>.\275\344\255S\274\313Q\031;?\310\345\274\\R\362\274D\014\245\275\373\231\217=\331\313\004>\227\305\340=^\366\316\275e\202\344;\276\206<\274\022\204\036\273\024\3667=*]\364\275\317\347\274\272\331\302!\276\305\370\310\274.\362\033=\363\372\334\273\024\354\301\275\350x/=\233\274Z\275\001\\\345;\276\202s=\200\365\211=\306gd<\241\233*\275\347\320\222;\202Mc=\243)\025\276\270$\204=\217\322\305\273:%\241\275\216{\246=\316\337\212\274\027^%\275\334$\247\274x\021Q\274\024J>\276\307&\331<\003\367L<WY7\276\023\"\227\275\n\001\023\276\210\033\341\274\223`\301\275\007\316\221=z\016b\275\317\242%=\223RG<}\345\031=T\3740:\374\364:=\n\2366\274\021I?\274\213/o<\222\312\001=,vo\273Z7.\275\357\301\t\275_\"\226\275s\0063\275(\327\330;\tI\366\274\377\371\257<\301B\320=2\030)\275\372\302\000<\357J\271\274U\334\000=\364 !=\rJ\017=\224\240J<\317\366c\274\267\216\256<3Qo=/5\010;\307\201/<\323\276\014\274\262y\027\275\302G5=\313\310\314\2746>\247<\rx\305=\366!\370\274v\260\037\273!8\021\274\347\233\241=Z\'\201=\251\252<\275H\335\030=\354;\r\275\365\354\370<\237NT\275\347B1\274{\352r=\310E\021=E\253\303;\231\037\202\275\014m\300\271Mx\340\275\236\264\247<\304\206R\274\206^\227\275\352\273G>\331\300\031\276\340\220\214=\n-\031>\201\371\224=&\327%\275\335\357\252\274\240\344\n\274U\004\376\275\323a\250\275(\227j\274R\333\354\274Z\252M\275\ra\267\274\266\3136\275y\335b\275\306\257\245\275g\021t=\377\257\256\273y\212\270\274\t\025\270\274f\231\317\275\237\376\t\2750\245I\275\277\365E\275\024@\331<p\210\000=\3516\000\274w\020\314\275\000\307T\275%\254\017\276\016\275f=\215\021\304\274\224\336\331<\377\314\002\274\271\356\227;c}d\273\2246\314\275\032J\003>F\274\214=\341Nf;E\020\031=\346\312\330;5\223m=\353B\003\274\361\300\022<\224:\226=\335\272\254;\205\263\234\274r)s\275\235\377T\275\324\177\227=E\355\034\274\234z\025\276\021\302-\275\304@\204\276\274<^\275\341\224\036>?\273\030>\274\033\262\275\337d\020\275v_\014=px3=\346\326\037=\025\207\361=_\364\274=!\334\022<\'%\000<\322\203\257=\007\272h\275k\317o\275\365B\242=\236\322\233\274\226\313}<\317\2767<\262\334\030>\272-\'\276\010-\205\2751\3279\276\373O\263=eeL=\260\334\231\275\324\023h\275-\342<\2750\370\007\275U\005w\275\235 \003=\006\202\253\275\001\352&>\231u\257\274t\367\037\274@\263U\275\274\2106=\232\340)\275D\360`;\017\204\n\275\252\231L=\354L\"\275[\242\022=\341\210\361;\220\220\210\275;@\000<\363\014\335<\272\013\t\275kk\237\274O\367g<\301y1\274\3270\236\274\235\222m\275\305@=\275\261\0067\275\362\265\203\274j\350\204\275\331v&\274\001x\202\2754\r\372\274\030\271>:\266\006k<b\347\'=\370)\216\274\332\036\014=\227\000\211<\004\010}=\370R\264\273!\026A<HGf;K\344\312<\240\244\212\274C\001\301<\321\221\316<\346\306G\274\365!\371<\271\341\023>y\245k=\372\240\243\2751\224\250;\243Y\302\274\254\217{=\016\276\006\274\245\256)\276DQ\260\274\022.\004\276\221\234\270\274*\017 =\010y\230\275=i\031<\352p\002\275\204\306\261\274\223\224 \274*4N\274\275\311\023>dL\013\276\3546\240\275\004\035\215\2744<\025\273@\341{\274\236(A\273\'F\225\275\261\216\301\274\352\206]=F\277\304=\321=8<F3\r\275\374f\232=\372\030W=\322o\207=e\330\263=e}\005\275\277o\235\274!??=\301\312\203\274\321E\005\276\0220\356;\256v\r=Q\353\323\274@\335\215;\327\375\223\274\220\324E\273a\333@\275\261\326\207\275V\204\250\275\355\350\215\275/h\r\275M\301\337;\357\345\000=Eh\262\272A\224p\275\311w\247;%\263\244\275\034\226\035\2753\311\204=\0241j=\304\316\231\275q\002*\275\324A\205=(\275\025\276\210e\032=\r\t\266\275\r!\316;\020f\016\276\216\037\352\275/\211\001=\304\214\313<\314\371\350\274\273\037\245=\344Y;\274\020C\211=QM\325=\367v\371=\020M#\275\325\253N;I\250\255=\271\024\031\275\250tC\275\021\217\306<\356+->l3\336\275D\247a=~q\013\275)M\004\275\341\3453\275\027\236\323<\357$O;\340\005\261=\234(\365<\364t\366\274E\335\350\275\006\307\332\275\235\234\037\275\272\327E\275q|\304\274\t\372\213;\277\367\223=+_R\274*s\235<\361\330\211<^\235\177<\002y\202=\343\275s<\231\nt\275=\r\345=\340\316\327\275\026\260p<\224\221\302=n\224r\275\370T\374<zI\245=\r\367\270=\324+\321\273L\326\205\275Lu\350\275\3631H=\031\023\004=&\276\266<\245\343\221\274\007$m<\355\342o\275\364A\002\274\257\200);OIi\275\273\306\232\273\002\317\274=\230w =)\224\266\275\223\030E=\336]\227\275d\377\221\2745^~\273\213\241p\275\020\205\205=y\327\216\275\351D!\274\237\262\345\274\016\325\321<z\215]=\2446\212=\022\342\216\273\232\261#\275\251\261\321<\306G\321=\020\242B\276\205\030\344\274\244\234\322<\371\363l=\273-J=\363Q\347\274)\232\267\275\223\245L\275\214\326\350\273\2676\n\275xt\021\275\330\031\267\274\221\017\230\272\357\007\r\275\204\033\340<\252\242\307<\231\272\247=_\2657<\2320Q\276P\270\347<\201\247\017\276\335\001\361<[@\277<\322\216%=\177I\244\275!\t>\274\246\004\244<\177[\032\276\017Q\322\275\353\030\320=h{\371;:X\\\2754(\250=\003e_\275\277\270\026=\315\312\331<\314\302V\275\373\267~=\271w!\273\'\033\205<\023>\234;H\211\342\275\217\016o=\261\335\257\273=\001\357;\341\'\321\275\023\245l=\357WY=CO\242\275\267\256\'9`b(=a`\355\274c2\202\274C\316\002\274j\304\254\273\236\226\036=\2642\322=\314\201\216\275\034g <;\277\201=\355\221\232;\364Yi\275\350\207\226<v\003>=\035\027\021\275a\206E\275\315<\321\2757\373o\275\356\235L\275s\034\212\275\343\235\236\275f\314\263;w\353\026\276\270C>;er\206=\177\263\372\274r\372+\276\322Z\205;\014\\w\274\\T\007\275\374(\371\274\267\307\267\274\205\301\275\272cn\251\275\024\311\007\274\307aZ\275\355:\336;!?\037=\273?\003\274\002\207h\274\322{\000=x\236\005=\214[\256\273H\212\203\275\021-w\274a\006\352\273\347\034\365\275\037\241U\274\3473\362:J\312\250\274\214\036\351\273O\2703=\252\205\200=\373\352\227={\255\321\274V\326\003<Mf\333\274\312\360\212\275\222^\217<\357K\255\275\033\362\240\274\361\243\224\275\023\264\020\275\272e\252=\203\032\n<J<\306\275%;\373<?\325_<\360\004F\273\377\247h<\001\365*=\202{\375<X/\014=\225\263\330\275\270\374`=\272\337\276\274xL\205=}\0322\275H\346\332\275\"M\031\273\260Q\365<K\333\207\274\306\365\026\275\301\351\352\274\236\231F\273F\316A\274\317\030\226\2738Rz\275x3a<=\037\201\275;9\257\273\236\252\177\275\034E\214=\' \317<\313\372\n=\201-M<\010\356\263;\307i\312<\270\364\356<C\343\333\274V\324\007\274`\007\313=\005\013y=3\361F\274*W\261\274\031\014\223\275\221H\232\274\020[9=H\335\205;\322\257A=](\361==\301J<\304\262\232;;\205\215=[\025$=\036\302t\274\017\227\242<\222:\355<\001q\251\275J\353\007=`>G;\350\207\206=\373\377\022\276zp\240<\363\007\376;H\207J\274=\261\245=\234\333\210\275T\202\377\273\245)\363\274\005\346\316\274>\242\203\275Q.4>:\335\246\275\277\207\310\273*\'\241\273\357\323r\274Q\004\017=\244f\366<-\3557\275\214\022\261\274\201\035\022=>r\313\275\301\3551\275\235E\225\274\340+A<\271\272\276:\233\216\377\274\033\367+=X\307\002\274\315\263\207=\000mm\275\367\3363\274.\246o=I\260\036\272x\002\225\2751\307\271;4\006\340<\254\275\275=\371c\237;=0|\274\026\277P\275tlU\275\235|\\\275\017q*\275\325\322\001>\256\326\224\275\024\346b\275\001\265<\275\343\330\202=8\273~<*Od<I\243:=\261\303\341;@\234\000=$(\222;\305\254|=:w\305<\243\276V<G\212\225\275\262\262\367<\206,O=_\251\004\275\271\334\313\273\255\222F\275\203s\342<\352O\322<^\366\311\274\264\2724=\336c\023=\256;i\274O\202\202<\315\333\204=lnv\275\357\210\304\274P7\230\274\246\027c;\375\220\020\2764\036\251\275\316\377\252\272#\372\353\274L\232\000=.\2747=L\222\027\275N\007\007\275\237\257E\275\274=\000=\376\0166=\241\341@=y>\232\274\267\300Y\275\331=\275\275\007\3617\275\007\355\007\274\246\324\217;[\331\212;\253\352l\275BM\353\275\034\316\376\272A\022%\276!(\026\276\220\230\025\276>K\241\274\017C@\274-M\3116%\264\305<\343K\016<\253W\347\275\327\241\212=:\343\235\275\336\003\227=R\322\000\274@Sj\275>M\223\275f\342<\275|%\235=\270\033R\275f0\255\275f\025\t\275\377\032\030\273\213Q\"<!,\263<\367u\242=Q\177\266\275#\304Y\275\341\331\264\273\270\005\327\275\233\232\320\273qq\2547\013\253\"<\267\343\024\274\301\n\n=\236\353I\273\224\3005\275x\357\003>\252\270/<\333\354!\275A\241S<W|Z<\343\227,<\0023@\275\224\375\202=\027TL\275\260\200\177=\004s\256\275\253\036w=\346\374::\034\201\003>\020\022\241;@\235\374\274|\353\021<c\246>\276\237\303\221\274\351\3010<\304\305\315\274Q\240\203\274\204%\245<>\366\031=<kO\271\226}\001\275\377\232.:\340\320&=\257\333\232;\031\345:\275\2322x\275\226\3637=\206LP\275#H!=\355O}=\363zk=\030\277\336\275\256J\201\275\014G\310\275/\317d\275>\363N>\211\031\007\275\342\010*=&\033a<a\376l\275\203\254D<\261%1=WJ(>8\372\337<\'\210\261\275\313\377\310=u\267A<~d\364=\006\267`\272\367\210\037\274P\035\227=Y\007P\275KT\007\274O\016\301=|\260%=N\260{\275C\006(\275\323H\274:\257P\216;\001)@\275,G\241\275|t6=D\320\326=r\227\212=\360\010\351=$@\201=\214\337\364=\373\302\010\275j\302x\274\305\231\010>\315\363\211\275\246\367?=\014\227\003\276.\220o\275\272\"\005=\331\240\310<\014\211\205\274`BP=\326\220\016\274\210\003:\275\035:\250\275\207@\205\273\214o\205\276\275\225\024\276\360\360\264<\372\014#\2756q\227\275{\006\236<\034\236\216<\005\337\247\274\024}\372=8\256f\275y\353\014\275\tJ\005=\323=\252=\017\223\327\275\366\252\204\275\177\2229=\301N\034\275\257\316\307\275\315*\330\275\367\354\305=\214\360\356\275\200a\235=\327p\016=\017w\337\275\225\205\017<\255Z\033<\326S\0229\031B\242\2745~,=a\037(=\316\252~=Hf\272=\020\214\256\275\327\360\260<\321\346\240=HT2\275t\217\347\274*A\232=\"\016\253<\377u\260\275o\003\010\275\277+\223<&5\345:\206\322\273<\366\000\016=\013J\241=wH\217\274\217]\234\275Fk\305=];l\275b,-\274,\245z;b\303\204\275\251\017\036=(\360\306<\211`\';\326\023\350\275+!\013\2754E\241<\226\024\330\275\216\002h<\r\243(\275\255\345\305=\344J\035\275+d\243=9\223\256\274{\365\377<\026\305K\275\006^\030<\355\200\211=:\314,>y?T=B\342E\275\206\234\260=\t^\n\276\232\210\211=\333V\232=|\340\300\274\2354%\275K}\273\275O\263\000;\257\230p;\233\317\215\275\271\304\273=\003p\0139%!\376\274\360\270D\275\'\276\366\275.\204\306<\322\323\241\275BM\301\274\232N\034<\230\270%\276\032!\013=\264\312(\275\372\010J<\365\332x\275\320/b<\344w_\275;V\311;\364\002\033;P\000\320\274\322\234?\275Q\334\220\275M\206\017\274\24007\2744\232\302\273g\274\366<IBH<\230iM\274$\224\340<\254\217T\275?$)<%b\017\275\371\366 <U\203\320\274\306\222a=\371\266\336:\352z5\275g\035\272=\226u\250<Hd5\275\244=(\271*D\257=b \211\275\037\245(\273mI\344;4\210\354\267\341G,\274\005\364\010\275\212\235Y=[\347G\275\324\241\216;IhZ>\027\023P\274*\331k\275\330^\215\274[\317\262<\343M\244=\330y\010=\022+\340<\0274r\276\005<\254=Q\246)\276;\372-=9\236\215\275_Ya=\3726\276\274w\310\274\275\362R\351;b\216t\2753\332\303\274|\0260\2755\214?\275dM!\274,\246\235\274\314\236\244\275\272\206\376\271\2319\003=\005\022\270<\220\003\346=\035s\000=\316\006J\274\007\202;\274\017\006\261=+\271p\275\004\t!\276N\202\210\274U\225\n=\332Z-\2743\361B\2745l\201\275\362\325\202<\302NC=(I\271=\226\3749\276-oe=\333\000\272\274S\270_\273\254\254\206=\2657\367;Q\362\224\275\000=\000\276\216i\"=\250\213\314\275\275\340\243=)\252\200\2744K\245\2747>?\2752\205\357<\307\341\347;\335\356!\275\350\016\314=\306\r\026<\241\271\313\274j#\267\273\006\322C;D\221B=\241`<\275\027D\210=j\212%\275\305\032U=\036\373\215\2748\320q\275<\341\204\275J\331\241\275\245\306\r<\300\324I\275\342r\240=\306\230N=Z6\027=\320\301\213\275\310\342\r\275\322\333\"=\036\241A\275|3\273\273\026\014\013\275\341\337\206\275\245\373\314<\001J\314\275\222\001\237\274\005\201\030<\235\367\177<\342\366\244\274\302\201\371\273\232`\224\273sE\020<\253._;\245\245\326\273s!\275\275\312\276\005<A\"\277=\304_\207=\245\r\242\273\200\020b\274\351\177h\274\036{8<E=\025=\315\362\325=xB\222=w\256\256=\235\363\264\274\213m\365\274\326\247a=\211G\264=\217\224L\275\224\006\261\274\373\274\020\274\002\377w\275\306\232\375\275\300\352\302\275\211%9\274J\320B<\367K\373\275-\'\202\274\307WG\275\224E\213<\361~a<\373\357a\274MjV\275\224X\315\275~\201\322=\313\020\211\275f^\254:\214\333\226\275\0242[\275(\t*=];*\273+{y\275\224\031\374\275\001\231\201\275\325F\n\2768\244\340\275\327\033 =q[\220=\252\375\t<\002 :<V\212\244<\374bv=Q\337\025>\344\371;\273\331\327\351\273\201#\226\274\221\010\205\273vY\204<J\220\251<\360\251\232;>\333U\272 ~\356<9O-\276\341@\240\275$v\271=\300\324\020\275\215\216\304<\376\357`=Q\347+=\346\013V\276\2231\254\275\025%u=\235~d\274z0\016==\3577\274\265\250\231=\010\251\334<\027\002\235<\255dk<\330\317\016\275 O-\274\317\230\263<O\346,>\323\342\277=\365\372.=\266\367\363=T\300V\274\354\016\017\276=\350\001=1\317\034=\236\273\223\275\232Wv=\221o\201\275\3776\004\275p!\251<\264\177\210\2759\034\247\275\257\005\265\273-\346\323\274\031\323C\274\361e\306\275U\335\234\275\316[\024\275(Q\346<\214\302V<\326\330\203\276L\323D;\311\213\206:h2\305<\177]\216<\267}L<\217\315\213\275p|N<yO\235\275\r\340\030\276\201\r4=\014\274)\274\022x\326=\313c \275\325\333\'=\247>\022\275\022(\274=\261\311o\275^\005u=\231\210\211=\016\251\215=\246\tu\275\354\032\200;[\225\266\274\004\363\205=\013\310Q\275\203w\257\274\324fO=\034\211B\275v\225\024=5\237\355\2754\301\035=\375\355U\275\200\307\036\274\263)N=T\304j<\243K\264<s\242\215<z\351\210\275{\347\037>\365*(\275\350\350\324>6\300\244\275/\200\267\275\375\307\207\274Rv\203\274\005\214;=H,%=\350\005\001\275\210\242\350\275\365\373\250\275\206v\341\274Q\311\277\275=^\234=6g\213\274U\275\034\274\356\277\033=\253H/\275\014\026\002=\340m\005=O\206m>\254\'\305\273\206\253,\276\320m\026=&\377\225;[*\033=\300\270T\274\274,\206=\031T(<\343\231\263\274\031\033:\275\\\251^=\204\027\256\272\352!\351\273\345&\250\274\010o_;\254\373\314<\322\021\264\275\000\226\271\275(\n[\274\227\265\256=(\232\025=\235\245\373<I\333\300<\230\225\025>\014\325\206\275\243,\'>/\003J=F\345C=\216D\037\274\007w\340\275\211U\003\274\372_x=\030\001\017<\342>\245\274j\000\'=\202\221\013\276\315w\225\272u\365\303:V\033\314\273\"\351\276\274\263\325\003;\314\213\334\274\230U\300<\206\350\t<\304\237\331\275\224\236\316\273\347\032\275<\231&\247=\203\235\254;G\352\273\274j\3359=\370!\214=\373\227\326\274\336s\300=3\003\t\275\341e\300;V\256W\275\367\313\002\275\216fb\274\031\266\216=\313\n\334<p\365\346;h\205e<\231\354%\275\204\347/=_^\251\273P\031I\275Mn\313\275\334$\233<kCq\274\344_\367;\036\240\236;\336OW\273\005\027\025=)\367\261=\376\234\340\273\214\225\210>\016\365\377\273\031\274$\275}F\213<\025n]<\006[\201\2741hw<c{f\275\037Tt\272 v\306\275\022\032q\2757D\234=\014\245\357=k:\017\275\037\233\037=u(F=\207\265\023=\2313\n\273\002\260c\275!a\260\275\230\022\016\274|d\000\2758\270\262<\304\203\322\275y\226\235\274\353\321*<\n\251Z=8\261\333=\242\025*=\225\316\263=qu\202\275\312\231\035\275\277\271p\274\265\035]\274+w\031\275z\244z\274\262:\236=K\020\030\275\251\025g=\371B\001\274\300\027\250<\271\335R=\315M\267\274\205Ge=\242H\215;<H\215\266\365s\230\275U\267\004\274\245&\246=C\361\302\273\207}\211;\335o|\274\354\303\017\274\305\216\255=\337Y\315\273\243\\v<OH\025\274\273cb\274?\307H\274\371\221\370<\3311\030=^\"\025\275\320\272u=D-\264<1\3650\275\250K\027\275Y\215)=\231\352k\275\302\2314\275\364\017\301\274QQ\273\274\236:\320<\237\216\274\273\0161\007\275.5\343\2747?L=\225\246f=l\022(=PV\362\273\263\021v\274\346\204\203;_o\005=\370\026l\275\326Y\207\273\223\337\006=z\232\302<4\277\227\274\330\305N=\205\002\245\273U\356-\275\032\265\224\275\326`8=\t?\207\274\023:E\274\372UJ\274Jr\361<-\360u\275\331\207\t\275\355\007\254=T\245%<\037\267\013\274\353\211\370\274Z\270\376;\205\245\264:n9\372\275_\342W\274\035*\353\275\212h2>\203 \010\274\016\252\r<\271G\000\275Z\315E\276\354b`=\001x\234<\367@\324\274\177~\220\276m\210\327\274C*\353<\316\221\243\275\200\222\325\275\2411\347<\235-\033=6\305m\275=\327x=gv:=DJ\300<n7\227\275\274!M=\032g\250\275~\371.\276\233\347\336=n\005\223=\352{\306\275\321i\000\275,\027\344\274|t\237<\356=\243\2754\336\362=\036_C\276:\220/>\024\245Z\275\201\376\007\275\342\032Q\275\311p\037\276m\215^\275\\\207\007\276>\301\212=\275\216w\275c\237\332=\235?\303<J\0037< \266\274\274\005\331\260\273\213\205\370<?\245\253\274\204|N=\212\213>=\330\306\013\275\265R+;\321\300\220\275\216\371d\275d\214\013\275<Q}\273:\256\003<\377\342\235\274\251U\355=,Mk<\031O9=Q\333\030=\360\351\n=\211\362\220\274\243\357\033=`\214\234<e\346\035=\231+r\272\374\nM==l\212=L>\355\274\234N\266<\376\263\243\274by\372<o\031D\275K\211\342<\335g\3029\003f<<t\353a\275\371\242\027<\177\003\026=k\333p=\026~C\273\217\005*=\320z\240\274\'\336\222=\2538\367\273\363\214\200\275L\307\340\274f\2563\2746\346\350\273\001%\014<\200\004<<\244\331\322\275\335\007%\275F6\201\275\345\310\243=T\007\204>\320-\024\276\n\273O=\202\347\005;\"^\233<\031\313\346\274e\377\354<3FU\275\030\207\330<\252\206\213\275\324\314\005=E\244\000\275\371\332\316;\n\'Y<\303\354\346\274\214\024d\273\256X\017\275\343}\276=!\217\016\274\031\262\337<\356n\301\274I\323\201\275k\301\341<\372\320\247\275\252c\372\274]\022\302=\'\034\226\274F\315f\274n$\002\276)S\022=b$\211\275\025{\021=\365>\207\275\324\311,=\275\237F<\332\314\200\275\322\377\312\273\331=\007\276\305\311\366=t?\273=r\377><`l5=\255\322\220\274\265F.<\030k?\275\222\000\226=_\326w=\212\353O>\226\326\226\274\251\306\230<\330\3064\275\230\247\204\275>\242\035\274\344\025\022\274\212\322\276\274\220}\201\276,+\224\275\366\255b>\247^\337\274\315\025\304\275\272\263(=)\005\025<\035s\324\274\262e\275\274\027\244\355=*q\020>_Jb\275\345\225\026>ON\024\275`\223\276\275\330!\262\274\347\202\234=\205\276\000=~\252G=\222\013\036\275\030\000W<\272{\036\276\210*A\275\001\216\n\276\322B\242<\233Z#=\246\305\241\274\030\242v\275\250m<\275\362\3771\275\211&\007\276ru\345=\367\212#\275F\325\224=\237\257,\275\250\364\310<\337\320d\275\245\250\277\273\201\300%\275\241\271\234=\252\240\203\274#\206\226=6\002\342\274\260\n8=l\343\321<\000\017\013\275>\270i<\222\256\027=\271R\007\275\234[\267\274q\325>\274\346\215\226<N+t=\330\327\350\274eQ\257\274\036(Y:\2551\322:\013\340\211\274=\355A:\265\277\323\275A\225\213<)\022w\272G\266\026;\346\335W\273lW\351\273\205\320Z=\177\264\226\274\360E\023=\242\321\243;\226\320\316<\343^:\274\025\200\300;%\2008\274\350\232\303;8\033\356<j\\\002<\245\301\020=\361\347M>~{\376<\224k;\275\270\204\254<\024+\211\273\010\336\204<\214\374\251\274m\353\200\275\231Q\245\275\255\014\370=\215p\030\274M\001\275\27462\241<\211Y\311<h:H\275\221-\265\274Tq\224\273\227\261\'=.\345?;\347-\006\275\342q\224\275\343\211\316\274C\225\203<\264\313R\275\3001v\274{\237A=[)\245<\263\254\233=\3444\332<$\001\302<\253\034\274<\317\305?=o\215\322={\310\244\2757\267\210\274\272P\355<_\023\022\273\221\376\303\274\315\370\333=H\371\003=\315\273W<Z\237$>\2744\252=\230\255\024\275\303\333\000\275f\001n8<\014\246<\3301~\275\276t\202<\312\364\210\27566k\275\374T\371\274Z\356\313=\307T\265\274;\224\024\275\323v\367\274\241\3219\276\016M\251=\235\226\356<\210~\224:[dw\275\365v\016<\005\342b<jT\202\275\000\314\344<n]6<l\307x=\204\270W\275\312\275\327\275[9\245=6\220\201\274\251\363\'\275\202\266\211\274\374\262\227=\026\017\014>\353\262~\273\356\346u=\231\301\201\273tz;=]\332\306<\001\204\r\276\216G\257\275 d\255\275C;\027>\\\340\340\275?\256\321\275\350\223\"\275\225F5\2751\350\316<l\323\245==\'u\274U\037\312=\004}\001\273\302`\256\272gL,\275\255\013\220\275\0340:\275\024\200\264\275\351D\242\275\351}\253\273\222\244\317=\t\000(\274\262\3026\273K\005\026<\203O\354=\313w\211\274L\365\341:B\031\273\273\r\317F=a\335p\275\231\214\201=\350\245\207\275WXJ9\214\251P=\366\203\203=\227q\005=\270x\274\274I#a\275w\335-<\237\355x=\261]\375\274t|P=m\205\370\2744\017\326<u\352\340\274\361\271\327\273\326,\256\274\006A\000\274\212\030\031>\310\303x=\327\030\210=Q?\270\2753%\215<\326\272\317\275\366\313\037\274k\255U=\354\220\272\275\252qk\275RUX\275\263\213\243:W\324*=\265Z\362\273\236\272\244=N\200J<\233\245 <CO\303\274\000\274\010=+\025\256<\254G\353\274M7C\274\256\340h\273\310+\263=~\031\205=C\020:\275D\320&\275\200\225p<\310\226\225\2733\373\016\275}\215\235<\263\233\215\275-\004\204=i\215\t\275\3071\236=+\014\014\275ur\327=\336\271\271\274C\017\004\276\347\232u=\355\262t\275\327{\310=\315\342\355<\264\340S=*\250\r\275T^\363<u\251\316<\370\237\221\275\341\035v<7\351\266=C\330R=\013\214\323\275<\217]=\'u\026\276\265\344\225\274\203\207#=d\274\025\275\354A\007=F\273c\274\343\347#\274g;\301<YN\270\275\351\260\247=\207x\213\274\247\300\275\273\225\262/\275\032\006\334\275\277\325^=0W\007\275\232.\253;\033m\002=\213cm=\264\353\330\274\326\273d\275\264\321!\275\2103E<\267\363\352=Hq\227\275\252\306B=\316rM=\233C\024\275\366\317\013\275\366/\027=\364\230==\374\030\214=j\326j\275\221\205\\=UF\314;\t\303\242=\353\003\232<\306\200\033\275\364\014a=-m&\275\341\332\255<*j \275\223\225\025\275\227\301\225<C\030\267\274\026\330\250=\023\025\037\276\321\335\275\274\275\202\226\275<\375\245\273\316\"\261\2749\250_<W\373\374\274C\001\266\275\245\357X=_\345\013< 0\210\273\246i\255=K\311\357<\336\231\027\275\365\377\347\275\277\324\341\273\257\274->NXl\275\t\242\002\275\'\260F<*\220\236\274o|\334\275V\001\331<\273\217\'\276\344/\017>/\342\370\274R\306`<\372&\211\274\327J,\275\227\217\331<w\003\231\275)u@\275t\277\253\275;\315\031<2\306\215=\363\353\372\274\240&\246\275\321g\226;\362!\326=\243+$<\220\273\202<K\315B=\260`F=<\314\372\274\000w\016\275+\225\214=\010\037M\275b\351\310=\030\3579\275\007\356\332\275[\226!\275\'\202\274\274\200T\253<\3446\213<$(\034=\205\356\365\275\222G}\272R\303\005\275\022\220\n\275+\255\247;\002\244\356\274\323+[\274\321\347S\275CP\272\274hg\355\275m\224\237\272Hz);\t\354-<\021\346\325;\334\261\030>]\004?\275\035\256\220=[4\226=\326\354B\275\021\202\026\274(\310\351\274\3478?\275&:\333\2745@\215=W\225\240\274\037\245\034>\'\245\346=\256r\241\275\334\343\025;\234\003g=D\341)=\230(\275\2745\2331=_bt=\232\255\303:\201\033\016=\2053H<+s\035\275\225\\+\2768\r\003;t\260\321<&Tf<\365\325\341=.\314\177\275zI=<\261\035\343\273\270\031\210\274\331\204\304=\007H\">\212<\t>\251G\025=VG\r=\323?\215:^\242s=7W\022>\202\224\336\274$\214\014\276_\014\t\275\t\000\247\274\337\345\211\274\313\236>\274\3623/\275)\027\257\274\207\332\233\275\021\210\361\274\367\3374\274\364_\231=0e\325\274\244\000P;\216\262H\275\361\007\000\2751\030\340<\266\000Z=&I\217=\216\245\'=E\310\331;\031\271\202\275\336\305\023\275t\235]\275\342\020\t\2751\267\311\273\245\364\005>\245\355\273;\225\341\351;\247\'J\275\264\340:;\351\337\014\275mt\360<Hk\027=\230Z\030=\211\2574\275\245\201\263\275\361\366\336=\271\215Q\274\224\326\031=\3232\n;\306=\333<\262\300\177=\324\363\t\273\022T\372<\"\023\376\272h1\231;\013\\\035=O\303m\275\3612\030=\371A\256<F\252n\275KH,\2726\"9=\202x`\2752\020\203=N\306\275\274\202\261\320<\273\324\n<\266Z\014\276\365p~;\360\r\201\275\345\\\000<\237\347\003>h\233\205\275\020Z\266\275\253\021\350\275\230\241%=N{Z\274\306\2733\275\005(\010\275i\203W\275LS\315\275\340\255\000\276s\340\341\273\\\034\017=\320\226\217\274\370\220\206\275\017F\272;^g\342\275&\340\241\275\033>\252\275\315\233\320\2747M\232=\213&\003=^l3<\236X\300\275~\013\373\274\331z\236\275F\224I\273G\313\206\275\r\034B<\255\240B\275\004.^\274\307\262q<\356\311\017\275\341 \006=\375\264\003\274\005\347\227\275\1778\031\275@\r\372<\035\225\245\275\257\013\212\275\360\310\024=\001\362\n=\260\000\264=^\225\356;\371\033&\275\366\306D;\255\213,\276-\336\226\275\357{h;\200+D=\210\376\"\276&L\347<1\256\211\274\277\347\010>\016\261\000=0X\020=lvQ=\n\374\023\275\320\202=\275\372\356\366<\336:\276\275X\301\372\272[\200\027>)\2266\275A\271\036>~\2469=\004X\355;\321\330]=6#\205\275\222.r=\373\272X\274\311\212a=\364m/\276a\025\006\275_4\035\2769\256\023=\032\246F=\370E\233=\032uK\275=]\237;\345\351\n<\360\276\245=\016M6\275xd\033<\034u\212\275~B)=-dA\276\nC\211\273\357/\306\275\274>\204=\"\252\260<\252=,>\265\214\023\275\000\301\017\273\225>\222\275\264\350\374=\200\207\233<g\340\305\275X\357H\275\003\221\220\274\322\314\276\2757c6=\214\241o\274(\227\376\275\322^,\275\370\307\356\275\212#\263\275C\2418\275\3302\"\273\327\314\023\273g?&=\016U\361\275\266\361\030<\332\346\222\2753,\256=\234\030\333\274ud#\2763\223\274=\034HL\274]\264\246\274\353\324\007\275\036\226\216\273\315eD\275 \332t=\262\276\207\275\025\302!>4)\236=s\t\213\273J\007\314\274\304\220\213\275V\016X>z\303\226\275\337<P\274m]\350<fzz\2765\013\354\274pr\240\275\345k\263\272\265]t\274oR\006<\344\014O<d`\344\273I,c<\322/\244\275l\230\215\274y\3401\275<x\032={\243c=\227\276\230\274(RP\275\004\351\341\275\211\3362=\024}\273\274}\256\217<\246X\260<k\364\207<\246\203\215\274\273o\213\273\037\330\017\276\322)\023=9\353\034\275\375 \307\272:\260\320\275$\276\274<\2067N=Q\375/\2753N\240\274H\351\260\273\001\266*>\357\331\237\275\002\007\005\275\367\231C\274\300G\024=!\253\210=\276\315\251<\217\345{\275\317D\253\274\375\3363\275\360\345+\274E$\324\273\226\375\301\275\007\335\261\274\374\007\006\275\215)J\275\330\022\032=TPW=\302Oz=\373\023\014\276\300\241\216\275J\363\006\275\315,\222\275*V\200=\350\013*=\2137l=\236/\002\276@\214\243=\220\203\204\275 O\344<\273\260<\275\016\350V:\216\271\224\275/K\246=ct{\275\366\216\007\273\033\001\024\276\300\221k<\323\321n<{x\036\276\020\017\317\274N=\215=\374Q\206;\352~c\274\220\234_\2745F\316=-;p;\306\031]=M\302\257\275\334\252\027<\226\243n\275\375(w\275\241\306\332\274\365\271\035\275ca/;z>\n=#,\002=\341\305\032=\233\235\201\275\024\203\035\275l\351\246\275\024\337\263<\034c\253<\340\260D<\241\345 \275s\0209\275\311b\332\274\037\364\276<\365\035\343\274\253=\324<\325\362\264<\274\334\245\274\r$\002\273\236\250\304<X\376j=kx\244\274u\225M<L\350e\274\321D\311\274-\365\336\275\313\3429\275!R\241\274\242\356s\275\356\251\312\272y\356\352<\252\010\366;\214-\225\273\232-u\274\314\205\216;A\013P=\256\214J\275\3510M\275\263G\026=\202\272\025=\335I\314=\334\3516\275\244]\t\2747]\330<\'\233\210\273\243=\030\275\024\275\333==\327\023\275>\036q\275\375!\346\273\311\307\331\275\252\006\014\275\362\344\364\274\243\305\301\274\256\320F\274\363G\257=xW\004\276\366\346):]\372n\275\"D\025\273Q\016\220\275s\372\332\274>\372\013\275\353\031\000\275W\346\350:\215\264\347=Z\361\030=\346\013\"\276\002\331^=\030\336\374\274E\316A=\267Z\232\275-\034\023\275\266\322-\275\023gd;3\264\204\275\002V\213:\266\032P\274+\276\245\2749\3254\276\312\304\n<Fh\n<\007L.\276D\324\233\275J\277\324;T\340[\272\222\331%\275f\031h<\204\326\356<L\231\352\275\022\232)\2756g\316\275\212q\014=o\272\326\275\036\0027<Q\274\325\275#\353\346<B\2112\275\211\2078=A\243x\2755\266\"=\361\323R=\270m\333<JbM<\271\354\'\273\317W\215\275\\\006\024<\'\344\256<\303\227\021\275\276\374f\273G\242/=\21785<L \222<K63\275\305\037\203;q\013_\273\004\275\207\272\257\006\022=\302M\250\270:\317#<sw`\275g_\301\273|\313\244\274\237bg\275Z\260\036\275\210\356\037<\002}\220=2\260\201:A\272\177<\034\361{<\323jA\275JB,<@z\324\274\\x\250<}2\250\275\326=n=\321\271\313=\247\322\207\275\320\353Q=\320\340\013=x\270\232<\002\216\301;N\256\370\274{\323\031=\027wt\274\304\370\366<\311k\272<\374us\274\301\316S\275\226\202n<%!<=pb\013\275\232L#={\206\2779$\244\264\274\317\325D\275\342\260\231<\254!\345\2752\005J\275J\263\364\275c\306H<2\244\036\275\327{\253\274\262\200\013\275\227S\301\273\262K3\275\342[\321\275m\341\207\273lu\021\276\355\256\247\274 v2\275\204\264\320\273\302\315\326=\027\343\375\267\247\350\370<F\372#\274\223f\213\275\370!\027\275\006H\327\275C\257\277\275\260\302u\274\2469\010\274\034\270@\275\333\334,\275\305\0332\275Uv\265\274\340\222\201\275l5J=9\205\311=\227=\210=\244:\301<\302)^\274\303B&\275\322\335\254;P\177\036;\\\371\001\275\255\354\217\275h#\211\275\212_\377\275bA\317\274y\266\030\276K\334<\275R\267\253=\033\217\240;D\307\021=\277X\302\275\370\240\311\273\224\206q\275\365X(<?\354\021=Wq\230;H>\206=\345\016\003\2751\246\004>\240G\367\274E\371\317\273\362t\214\275zM\332=\245\315\027\275\271\226\241=^\237\376<\3735\020\275\320p\223\275@:w\273eO\022;\0244\032\276J\364;\274\273\360\366=\315\356\210=\207R9=\227f\345=\035#\264;5\3748\274\271\375\t=]\331\326\275\005?-\275\004\005O\275\356\267*<\262\301$\274\365\350P\274*\026\347\275\336\022\001<\243\356_=9\014\240=\345\274\336\2753\037\261=\310\242\230\275\177f?=IAX\275\343\271!>\265eq\2755\270\370\275j~\212\273c~}\275\027\372\205:0n\007<m\344\001\2759\344@=OL\344<\360\357f\275\326{\004\275\326\321\241\275\003\230.\275j\003v<?.+\275\2514\016\276\233\213\037\275\346\353\370\274\223]n\275\214gp\275\310\371\200<\236\214\321\274\214\201c<\263\017)\273C\337\367:z\271\332=\342<\206\275\324_f=\000\214\221\275\275\233\013>\361\254\020\276\374B\020\276a\0062:\272W\256=q\254\027\274\235Z\243\275\205\305=>\337\200\204=N\232\031\276\223\021\036=\027F/\276\362\3052=K\255\304\274\373wL<\320=\227=z\242\203=\360\r\200\275\203\322_<Vp\327\2751\3303=\025\222\017=\317\n*>\373\217U<T?\002=6oT\275\205e\010=\317\020\003\274\212C\000\276u\n\272<\016P \275\206|\007\275I\264^\275\216\236_\275d\346\230\274\232\r/\275x\235\205\275\252j/=\345?\010\275\353\362\r=y\307\236\275Rx@=F\314\256\274@!\242\274\230&\220\275F\312_\274\017\330\366\274a\252\026\276\314|\304\274\231\375\350<ij\215\273\273\322\213\274\220B\276\275\211\377\317\272\240\241\222\274\263z\024\275\323\364\377=rB\247<\343\036r\275\242N\236\274\341\325\226\275\000?\372=\260!\332\275\027\3258\275A\027\301\273%4[\275\205\206\000>\213\343\215\275\365\023\000\275\306\306\007\275 \316 \2741\311\240\273\010\347^<\002\330\341<\371\345\353;\357\026\247\275\214\356\232;\2412\364\274\264\273\272\273\373\375\007\275o4s\275\026I,\275:!9\276O\246\244\274\211\243\207<^\233g\275\211\245\341:\227\'3\274qm\350:\346{+\273O\330\254\275\260\207\020=\260\014\216\273\220\211\213\275aV-<\004|\035\275\373q\216=s\350\352:\253\375\206\27577\002\275mIl\2742*K<\362Z^\274}rF>e\245M;7\230\357\274\304\265A\274\251\037\024\276\246?\306;jX\n\275\372\373\021\274\r\365=\2749\245\335<\251\203\025\275\310m\224\275\"\312\006=\253\330\'\275\213:9;}\350\225\274e\302,\275\201_\313\274\266\026\301\274F\201\243\275\266\373\217<\377\245\323\274\267\005 =\0165\016<dg7\274\037\351\221<a\374\336<~M2\275H\202C\275\223\261E\275\000ef\274\373\277\277:QnD\275\215H\364\2741p\t<\332>\211\273\017\344\"<\302;\200=\341\246=\276\017\353\261;4\306/=\235!\026=\317\177f>h\244\220\275\342b\031=\344\324a\275\035{\242<\'\372\\;]\312\317\275\316c\002<O\2225\275Yd\367\273N\344?\275\375\211\034\275\212\255>\275\371\332\313\275\243\376\347;\374B\361=<\001\272\272Q\267\300\275\323\017\377\273\332p\263<\206z\222\274\316\002\207<\301e\376\274\242\307\007<\027\215@=\372\245\371\274\260gH\275\035~\363\274p5\254\273\201\261p\274\250s\r<\375\237\233<\304\305k\275\375\331\361\2736\337P\273c\326\226\274\340@\365<i\n\242\275\353\350Z\274\306\223S\275M\223c=e\202]\275=:\006\2746i\240<\350\213~=}\313O\272\377\314P;3\336\336\274\245%j=\272x =\374:\035<\\\027\300\274G\344\375\273\035\303T<\300X\024\274H\260q<\356\377\242\275\203\030\255\274\271\240\010\275\345\202!;\212!\271;r<\002=:k\333;&G\007\274\031\313\023\276(\204\013=\221~f\275\214\363\315<\353\335\002\275\332\352\377\274\205\254\316\273\312\365\027=0\023\270;\310\227\\=\321\327Y=d\313\030\276\024\313\331=\201xm=\276\340^\275qO\224\274uao<\334\223\334\273/\313\204\274\337\315\345\2743Z\305\275\026\236{\274\346\350\361\275\333q\312\275_\340\244=\335\337\206\275\031\265\276\275%\313[=\014\277\243=\235 \201\275\'\312\334\274C\035\005=W\362\210<\313\030\216\275\340\024\\\275\316Sy\275-A\316<l\033\030\276\3416\225\275\336\231G\275\024\330?<\177\3464<\035\346\r=\033\005i\275q\321\321<\326-\036>\024\004b;&\332{<(t\367\274\202\312\021\275M\t\002\275\244ec=2\265\205;\233!\323\274?\026\244\274\030\230\203;\355\020+\2756\363q<\020\204\277\274i\035p\274b\370\252\275\301$3=_\236\246<\036\364\205=\024\217\322\274R\325\275\274b\227\271\274\262M\220=\032\275\240\274\373\213\225\274\314\260\254\275n\303\324\273\200GQ=R\331\346\275\256\353F=\365\305c=\332\244\367<*\327\277\274\370\035\206;y\350\226<!\207\311\274IO\230\275\013\357A\275!\345\213\273[\302\360<_\245\260<\207\262\224=\360\263\025\275/g+<\240k\253\273\277GO\275\013\225\220=\263+\200\274f\3145=\264\240M=0\335Q<\224]\022>S\356\335;\030}\211\275\023\216\014<k\177\315\274g\205z=\2540\"=\270-p\275\252\245\226=\244}\264\274\230\2527<\"n\331\275g\306Y\274\334\215\254\274\rE\233\275\267\335\013\275:$\210\275\234\210\246\275D\325\234<\272#\010\276v\251m=\350\265W\274\243q\021>\021<l\275\353\305\235=P\267K=\241\374\\<\270h\204\275*\264\027=W\311\327\275Y\231o\274\217C\027=\261\036\360<\345c\257;\234\303O\275j\266\031=\300\316\225=Ebk\275\226G$<f\034\r=\360>\233\273\353Q\237=~\215V\274\275\255m\274!\342\252<{\346\217\274P\267\202=\017\033\212=\202\377f>\177C\217=g*\211\275\030;\233\274\253I+\274\010\210\306\275?\347\006\275K\033\350<6\354n\274?\223J=\355\344\032\275\230\312\276\275\361,\'\275\330c\231<(\006\013>J\357\320<-\2645>*\221s\275\264~\002=\253R\305<Y\277S<\346.\231\275\313\346\265\275\264\340\211\273\310\243\020>\264\005:\275{/\261\274Vks=\2055U=\t3\342=:T\034\275\263\260\220<\235\233\322\274S\343\236\275\307\334\245\274u\\\236=\233%\261=\247hx\275\310B\353\274\\\013\273\2757d\225\275[4\353<\320i\323<\347\203h=\211\241]=\321\253!<\224H\002>\rUs\275\0256\266\272.\334\352\274C\"\247\274O\377\035\275\214\243\353;r\201\027\274x\2160<p\324q;`s\300:$Kv\275\002u7\275\376\374/\275\277\247\020\275\240w\362<o\375\262\274@\235O;\343\265;\275\372b\024\276\322=a\275\005\266\013\275\347\266A\275~\314\343\274\317\0253\275\226u%\275\177\220\370\274m\001\r<`\305\350;\351_\266\274\326\205p\275.\341f;\227\364\177\273.\313\241;}\2162=\025\307\342\274j\226L<%y\330;\251\006\374\274MR\330\273\231\310\263=\310Yn\274\222\310\032\275\221\360<=\037h\241\275\254N\332<\303~H\274\005B\234<\267$\024<\031\236r=\353\301\"\276HQ\244\276W\217\026\275\213\001\013=\321v+\274\033\262%=\3517\330\274P\034\022\275p\335\036\275\253\267\333=\267e\207=\325NF\273\324[\334=E9\272<NiP\275u\271\036=2\235\251\274O\300\034<ClN\275\245\257\266\275\022\346\255\275l\022\024\274\372\244\245\275C|!;\0061B\275u\250W\274]H\332;\232@\200=x\331\302=\'(.\275r\346\023\274\2508\275=2\313\001\275\030\241\343\274\353\177a<K\265]:A\356\204\273\316zu\275\230\3715\275\374\264A\275%\031r\2750\250\025\274\007\031s\274\030W\326\274\256\2551\273N2\353=\265\305\262<\273\351U=e\013\213\274\240\241&=\315\371\r\276\334\371\r\274\311\365\242\273%\330\363<lB\257;\305me\274\325_\242=\362\373\035\274x\214\037=n\250\346\275-*\001>\003\273\256=\370<\023\275\314k\034\275$\2463\275\273\240\006=\255\214\255\2759\253\037=\325\324\271\273N\354{\275\261\245\332\275\374\243\315\275{\306=<\303\210w\275\232(\265\275\363\360\214=\tZb\274\022\244\316<>8\372=\'\225\320<\037\217\001=#g\007\274\252\003\353\273\010Yw\275d\342%\274j\221\224\274\376\354\372\273y\240:\275\306J\301\275k\341\360\274\346#\035<D\330v\274\365yo<Ge,>\3065\267<\031\322\010\275z\215\323\275\226nh\274\315K*=\344\207\'<\270C?=F\2026\275\201\263\277<l\343\215\275?\352#\274\205\324=\274^\004{;\227u\253=TH\024\276\302jO=\025\207\262\275\031\301\032=\026\271\270\2758-\336<\306\240\225<j9.\275K\204\216=\220\tY;\323>\254=\205&\220\274Wa\\=\237\374\242\275\275{\317\274pHX=\2606\240=\356\213\261\274\250\001\037>T|\200:Pel:\272\235\360=]\252\277\275h\255=>T;\021<[\326\232\274\225\206Q\274\301\211\311=mC\022;\177\214\325=\361H\016\275\210\213\242=\260kE\275\024\306?\275\335\246\205\275\"\335\223<\376\332m\273\377\0073\275)oP=\254:7=\221\377\007>@\343\340\275\317\370\203\275S\212\245<\361\234\366\274\305vp=\252\225];,\314]=-B\353\275\230\250\202\273\224e\371\275d\275\224<\3356\231\275\234\241\240\274\350\3557\275\177w\313\273~m;<X\n1<\205\235\260\275\243\260\241\274\225\351\264;\235\254\356\275$\020\204=\231S(=\351\240\354<.\351\277\275\'FW\274\341\0103>,\206\227<\213\033\343=\260io\275\250\316K=!\'\"\276\201\216\"\274|\326\033=\337!z<\333\350\3249\343\rh=\353\246|\274\346%\r<\n\310\275\275h\340\255\275\030\313\230\275\374m\347<\255\030\235\274 \350\332;\204\013&\275X%\260\2748\034D=k=\272=\247x\332<\324\211\322<\2122\323\273\222\204\236=\323\223\321<\220\2265\275\350\371\337\275x\345\030\273\257\252\350\275\327\230\203:j\016]\275\002\254\217\275\247\257\206\275|s\234\275\311c5\275\205\341\022\275co\203=;w\225\274\251\177\"<\033K{\275\256\366\334;S\357\277\275X\326\215<9~\326\274\213\347\n\276\017|\275<\3707\373<\247\2675\275\212\3200\275d\307:\274\321\306\370\275\336\354\342<\213K\003\273\006$\002>x`\261=\267\331\366<\352\272:\274\302l7\275G\256)<\336X\244\275\277\274\231\274bx\217;\354\3105\274\325Y\023=\360\242i\275D\237\242<\371\363\335\2755(\324\275\301\315\276<\240\3048=)\366\017=+\241\023=j\232\025\2754\021\247\275\362\262\003\275}j\220<r+\013=\364\374\033=#r\226\273ImB\273\332\346\376\274\313\303\360<k!1\274\274\010T<@x\330\274\274\256\231\275\301l\230\274\330zp\274T\230\260\275\r7\302=c\344\233\274~\206\274\274+\252\007\273\374|\\=\375\"\242;\331m\375\275%]\272\273\320n\245\274N\224\006\275\254\227\252\275=\n\220\273\331\202\200\275\374\350\260<\212\003\001=\016\267^\274\265 \217;H\231\223\273\353\363\021>\205\265(=\331\217\204\273\036\037\275\275i\275\367\2731zh=\"\362_\275\020\'\301<\342\326\034\275\251b\022\275\237\rU<\315J\027\276\016Y\242<\013\347\306\273N{\306=\377\374\204\274\370#\255\275\315>\332\274b\344\246;\373\201\361;\306\315\224\275m\2643<\210\373\036\275\336\377j\274\n\366\231\275\024\270\244\275=\253U\275\345o\014\2750A\366\274\034\306\\=!h\021\275\222/z\275\223\250\234;2\330\362\275\230\000\'=J\\\374\275\251\243\006\275?g\243\275<\252\262\274}C3:\204\374L\275\347\311E<G\304*=}\227\315\274\364\326D=b)z\275\247\r\210\275H\344V=\237sf\274\331\245\237<\345\0135\274\300\274\311=\"\016j<m{\233\274\356\"[\275\242aW=\005\365$:]a\031\275\357\356Q\274)\332[\274\271\334\311\274\214\350\200<\031\204\306\274S|+\275\010\003(\275\003\352u=Y\211\226=\304;\200\274\275Wk\273\213{\300<\242\354\241\275\3071\232<\207\275\231\275\217\247\271;\'\204\023\275\325\226\006<n\247\020\275\010z\321=\347\r\324\274\245|(=\n\3660\275\025\202\226\273\235\360\270=\006[\352<\260\372\245;\302&\342\274\3549\203=\230<\031\274|\032\014\2739\017\204\275\014Q\222\273=\014\270\275\315\345\024={\'[\275aB\225<\\\365\365;\250\223u\275\300\030\254=\256\016\303<\242\327\246=\356)$\273=Q\370\275\3263\032\275\311\'7\275A\375\r\276,+\245<\275\215\242\274\275\304/\276\223\274\244\274\267\034\305\273Ez\030=|\226A=\332\214\256\275\031\261\231=k\306\321:R\372\023=\n\017y\272\033q\270\273\r\377c\274\205Q\270\275\230\317\207\275w0\200\275sc\314\2739F\221\274\233v\270\274R\301G=T.\213\275\365\002\333\275\200\347!\274\362\233\247\275k\275@\275\246FB\274\034\246\003\276\243\226\375\274T\236\013\275ZR\201<\352C3\274a\"\014=\t\r\350\275\005;S\275e\352D\275Q\230\252\274\307X\343\274\341\250\005\270\315T\333\273y\235\261\275\264\021X\274\324l\220\274\331\214H<8\256\240;f\227\r=w\022\304<`\267\021<e\014V\275\014\323$;[\021\031\275\3354\362<\230L\036;e\231\374<\262\206:\274h\337\264<\322\365^\275E(&=\373\\z\274\324\275M=\335~\241=\326\325\271<\010\"\033\275F\234\240;\313.\022\274ja2:3\277h\275@\355\377=\025bt=\304N\223<\375i\203<Q\267\264\275\236!\2339\006\025\211\275\331\264\263;\355\235\332<\222\347\255\275\\\306\277<\226\373\031\275`$0\275\236\214\325<\373;\3458Q\224T\275o{\001\275c\355\277\273\257\244h<\253 \261<2\313#\275A\014\"\276y|\004=\217\365\312\274OD\213\272Yy\234\275A\205\007\275\357\210\001=\337\276\342=`\304\246=\237\201\0379\366\t\000\275\337\227D\273\227,\002\275\350\373o\275\227oM=\214\221I\274\272\250\212<\001\301\025\274ZV\201\275\331\034\276\275o\242\215<+}\221\275\252J\327:\374\271\222\275\356\254\333\272(v\320<\003\324\026\274@k\356<\t\3531\276F\362\317\274\302\013\327;\244m\255\2752\207\032\275u\305\346<\210\020!<\313\035s\275\362_:=\'U\267=\315J\216\275\2765\320<\002\031\027\275\2534-=v\247\257<\206_\030=Tx(=\215\306\024<\376\000\377=\242\363\\\274F@\327\275\330\262\005<\2366y\275\036\206\266\275\032z)\275\377\320o\275\205\000\323\275w\002\365\274\376\375c\274k\206\253\273\001*\224\273X\2227\276i\2001\275\254\266\261\275\264!\203\275\310 $\275M9\356< \370R\275v\212\311\274\"\004\254<\003\231\311\273[yt\275\303\022%=\024]\321\274a6\211;\303\243C\275\035\317\273<(V\215\274\026\3257\275\263m\204=\030BO\275\322\030\t=\361B+\275q\006\353\274\226\327\323;\0138s\275S\246 =6\351!\273\"P\254\2740\257\361\274\nX\033;\273k\030=\311\243k\275&\032!\275\235\201\322<y\2644;\306\353\t\276\300N\207\275J\374\t\276k\241\306\274\353y\016\274\206t\201;\350\216\373<\376Y\241<(\276\220=. /=\305\211\365\275\226\"#\275-\233\354\274\335\\T<\003\306\036<\265\270\030=\371\251v<\310\331\270=\271cL\275\203\215\201\274\026e\002\276m\354\205=\235]\364;=\373E\275\177\237\310\275\017\312)\275h\224\245\275r\276\201\274\245Po\275\002\362\357\275\n\2140\27433\027=E v\275r\240\331\274\017@\010=S\244\245<U\037h;\375\301\001=\300\242 \275\344\2637\275X\375\321\275\002\217\224\275\007\321Q\274k\320\215<\216\341\232<\331\223\237\275\204z\253<\274\215\374<\354@\355<[\005\233=cN\363\275\032O\016<-\336.\274\316\350\341\275.\327x<\304\253\023\274\262[\360;,f\217<\332\273\016<\357A.\274\007\n\311\274@\024\213\274Wf\213=\231gc\272g\345\253\274*\r\016\273\27414<\305\t\r\274\217\235\351\274S\356/\2757\372/\275_y\002\275\233\240\214\275\341\'\272<\274\342\236<\373\221\033=aV\240;\265\327\273\273\327\\/\275j\376\227\273=\004V\272\t\002\004;k\223\242<\300\311\217\273X\215\270=e5i\275\347N\032\275^\276Q\273q\022.\274\322w\017\274\034\002==\026k=\275=\336P\274\215@\257;<{r\275\241\3542<p\355,\275\332\243k\275\237\366\304;\210\013\000>t\246\305\274\027\013\214;s9_\275\223\376\263\275\321\317\024=q\250\227<\177]W\275\321|k=\257\201R<;\325\200\275\267\274\025=\255u\341\275\271I\326=\336\233h\274\3676&=\321\247K\275\206\351\026=\217\310\215\275\350\t!=u\0234=W3\025=L\307f\275:\034\252\271zN\033\275\207\016\214\274p\026\245\274\357\007L9\014\304\214\275E\360\001=\322QH\274sP\316\275\325I\010=\236i\216\274\030m\363\275\364\225\227\274Y\260\354\274\257\002\337<\223\312\002\276\255j\206<\\\243\202\275\273@\326\274\224\347\022\275\202\346\026<a\001m\275/7s=\370\301\206=\207\275g\274\213\000\316;\303\033\016=\257\311\324\273\314\331\000<\221L{\274\010\340u<:\262\352\274\017\367I<m\224\\:-)l\274\315Z%\2744\020;=\234\271\360\274\223\322\206\274\r}\306<\367\022@=\327\370\306\272$\361<\275\010%\367\273g\233x\275\347\201\317;\027\312\032\275\360N\242<\203c\217<\265\262\273;\277\347:<\231\3363<\312+]\275\320\007<\274\312\250L\275@,W;\005\253\n\274\217\000\010=w\251\205=\024\244\016<\245\256\247;\200\303\t<\361s\002=7A\322\274\3121\'\275\265>\232<\026\006\235\274rbA<\377\004\355;pm8\274\361M\353<\347Z\245=\341\333\010=tGx\274\231T\205=l\204\352\274\374\341y\274<s\031;O\314\201\275\020\317\327\275\372\271\223\275\323<\216\275\361\'\341<\366\241\304\274\r\\g<0\331\000=N.\341\275\344\201\r\275\277\345\244<\245A\035\275\002*\215:\346{\027\275\3569\t\276\000\370\242;\357\366I=\335G\311\274\375^\261\274\020\322\253<\362\353\255\275\\\247\017\2756\377\026\2762=\313\274\356\342\365\2751\334_\275\275\010\303=^\027Q\275\177\"\263<\305\264@<\341\211J\275\246~W\273`\376\234\274P\212\035\274\rR\315\273\343C\221\2755\314\260\274?\022\302\274\305\'$=\230\257\217\274\027,\256\275D[\267\274>g\002\276q\032V\274\200\331\241\275\317\254\2609\317\337\236=q:W=?\212\231\271\010,Q;\336\306\303\275n_i\275e5\301=|\227\016=y\352\276\274t\n\244<\177\314\211\273\014C\276=\006\235\364\274\266\004\212\274\240\241\210<\035m\237=Z&\315<cB/\274\372I\003>\017EX\275F\026\254\274<\303l\274t\274\223<\036\242\"\275O\023\350<I\016}=E\021\016<(\322\322=\351\010\025>\334\010\231\275\256\266d<\0239U\274\344\034o\275\270\020\221\275\356\035\221\275\345\211C<\016U\371\273\364Z\212\275\260\252\257\275\310\324\013\276g\230W=4\376w=g\344\374<?\252>:\206!\252\275ZZ\315<8\244<;7\267\373\275\215_\030\275\353\010\035\275\033\032\303;\332\301)\275\275W\266<\027\350\n\274>r\001:\313\237\307=\237\225\034>\353\300\272<Y\315\227=A\316l\2752\374R\274\355\225J;\247C\217\275\316Z\257\275\010\312*\275I\003\235\275yv\213\275\014\"\301\274\021\330j\274J\341\363<\005Qk\275\023\315\230\275\367\274\226\275\277\r\347\273\200\351\240<\3049\211\274\2216X\275u&,\274*\222\363\275wY\352\275\205\377\246\275Z\020\210\275jbf\274\200\360\224\275\360\364\351=\307\237\353\274\314\034\217\275\247\3166=\274{\006\276p\360t\274&\006,\275\206O\177\275\020\223\235\275;T\306=\254/\340\275\0010\206<0x_\275\030\235\026\275|27<\322\177\014>\222\r{=\036\205\371<\274\372M\275i\257\211\275\rkU\274\n\336\200\275\\i\252<m\354_\274\237qf=\r\377\220\275:\267\210\275\241-/\275\263s\271<\335\'\232\275\357i\327<W2\221\274\303\340\301\274kh5\275sW\214<\nb\243=\276d\017\272\315^\n:9\300\355\273[+\032\2757\216\t=\245\211\"\275]1\205;D~\214\274\002\036\326\273\007\276\223=\330\337\325=\255U\\\275\002\2506\273\027d\204=U\245\032\274g\343\326=H\303k\274\027\262M<V\234\263<2\031(<\330[7\275\376\253\234<\020\372m\275 ZG\275e\314\246\274J\027\306<\327\037\003<\203\231\323\274\257e\252\272\201\207\200\274yA\006\274\0249\334<\212\023,=\270\021O<.\030\203\274\004\010\010\274\360\334\217\2749\364\266\274\\\206\004\275\374\277\202\275\335l\006\275x\265\264\274\324<\267\275\212V\211<\215r\332\274\261,0\274\320\3543\275\2101\024\275\223\336D\275\022EJ\274/P.\275B]\037\274/3q\274\3328\317<\301\265\315\274\317\245\\\275\342\301=\275\2643y\275\"\005\240\274\305\007\"\274|\031\334=\314\030\367\274||\013=\365\025\363;\303\352u\275\251`\324<l\214\034\275?\013!\275\361#:\274|\343f=\"\232\217<\034C\251\275\0054\350<e\202\267\275\237W\000=\256\363\363\274\302\3265\275\362h\034\274Jl\262\273\347\203&\275\343Jn=\214\024\303\273~ \036<\223\002\241\274\336K\372\27427\251\272\233\024\014=mN\320\275(\241%\275u\236\367\273\361c\225\274n\303\241<\330q\211\275\224Hm=r\2102\274l\272\0218\240\237\201<\356W\030\273\337\026\230<\346\220\365\273\006R\014<\251\005\021<\314;E>z\364)\275)\271\277<\274\030c\274NR\023=\275\300)\275\210}\271\275#\261\247<Z\225\222\275Fg\001\275\272\357k\275\344a\301\274\217\205\265\275\275\326F\276\216\303\233;/\263\365=\345\002\224\274r\233\261\274\263\347\002\274\341\251\013\275S\225\217\274.\251\360\274\253\336\017\275k\214\327\273}\013\265\274\231\017\r<&\376d\274C\243\033\275\010Et<\\z\225\274\000\215]<L\323\000\275KAZ\274]\230\316\274\022\374\241\274P\361\356\274\344\206\335\274^\025A\274\343\231\255\274\347gH<\2136\"\274\002\216V;\342M\274<e\375\034\274\260\344L\274i\354\006\274s\234\207\2722<^\275m\372\251=\356\3231=\235\013\343\274rs\256\273\277:S=\334\0261\2757\005,;@Nn\274bO\215\275C\375\026\274\024\032n\275l\310T\273\307\3216\274\240\265\036\275w/_\275\254\2344\273\352d5\275<.\230\273\312R\320\275\202\265\3677U\323\275=\236\2300<\336\263\206\275\237\267\024=\366\244*=\031,\307=\r\377\353\273\221|\252\275%\307\r=W\361\221=R\232W=\336\223\250\275M\206t\274w\277\340\274\366\016\347<\035\327\243:u\272!<\355\364\274\274K\306\376<\350\277<\273\323\267\322\274$|\311\275\210~\220\275\215\311j\275\013\330\001<\260\250\210=\331M\230\275\0039u=\331e\024;?wX\276\362@3\274\347\210\322\275\023\t\270\275\035\247\005\276\245\016\365\274\260K\002\276\203\001\270\274\310\357\261\275\242Dm\274\237\030\203\274\232\007C=<?>=h\326Q\275\235\213`<:\242\361\271\010\254\\\275\335W\2477\3515Y=(\2734=}\222 \273u\245\217\274\231\240Q\273\222\217\361;U\006)=|\347\037\273\263-\254\274_\374\324<\324\260I=\343\221J<\352\331\'=\361\240P=\272\221\214<&r\305<\250\021\214<\032i\033\275\214W*\2752\376\322\274\234_\373<\327\352\264;\256\275f\275aF\213\274z!\316:b\013\253\273\310\204\001\275)\351\236\2741\220\317\274\207\366a\274+;\036\2750m\000\274F,\003\276\267\251C\275\320xC\273\031\311\212=&\215\215\275^\334\217;\3342I\275\226+\243\274\031\262g=i\335\022\275\262\010^<\336\"\262\275\t\250\252;\2710\005\276p\344h:\301H\202\275\247\340E\275\365\375\037\273i,_=\021\351\203\273\r\226l\275*\343\020=p\271\273<\2715\177<96\003\276\021\222\251\273P\022\330<\203w=\275\0321\242\275\256\334\257\275liK\275M\317\236\275\213\233.\275\223\037\215<\252O\377\273bB\223\273\375H\212=*\3066\275\254nJ\273v\332H\275\344\240\235\275.\0314\274L\223\370\275\346f)\275\321\351\026=\232\300\214;\355r\004<K\014\225\275n6\250;\324\371\311;[\031\253\274}\364\201<\027\3015=H|\263\275\371;\265=\231\371\t\275K\255&\275\032\270\210<7\004\271=\3556\253<\001l2=\256\006\024\275\014\326k=1\215\r\275&\266\213\273jO\306<K{\210\275\000*\203\275_E\203;2\203\317\275\021\306o>\211R\240\274+\353\331\274\345\252\224\275P\2359=\035\031\317;\376\033\217=\267\270\326=\365\010\261\275\"\321\346<\036/\306<e\'\230;\255+\t\274\352\276\235\274\247\201\327=\206L\243\274\021\251\216\275\366\005?\274\240\237\210\275\362\354\310<mE\r=\0368\031\275<<i:\305\006\336\273\026S\374\274\330\240\016\276j\367N\275q\312@=[>\254\275\322\224\017=\214\362\\\275\262^\207\275\210\351\367\273\r\215\2749\367\222\001\275\376n\254=U\324\214<Y\210\226=\244\251\364\274*w\236\274\206\004\300\275_\231\214\273\327\'\005\275\236\250z<[y!\275|\327\243<P~\207;m\001N9\303\316\363\274\240*\366<\275\201\345\274\237:\232<\263s\024\275[8\016\2745d;\274!\0376\275\344\272\252\275\225#g\275$\241E\275\372\257\236\275\247!\206;_\350\220\275\342\030J\273\276\226A\275\255\254-\275x\300C\275\276 \341<\253\224?\275\"\"\300\273\010u\001\275\3014\344;\337\335\n=\250\264\030\275\204\337\340\274\303\364`\274\022\2575<m;U\274\377\320\353<gl6\275\311\004*\273Ez\252;\t/\234\275\254R\267<V6\273\275\235\272\017\276\267n\001\274e<\251=\360\205\357<\240\r\006\276\017\214\227\274\331\214\010\276\361\250\004\275u\014\230\274?\302Q\275\212b\035<\364\214\235\273\257H]\275uA\202;]\002?\274\307\t\026>\001\206\336\275]T\247<%\251\"\275MA\223<b#\231<\023\031+\275\257\271\000=\301(\376\273A\022i\2755\376^<\001\tL;A\036\023\275\370\251\207<|D\264<NA\"=\223\334\250<\242\365!\274P\014k<H\230\247=g\331G\2740\337(\276\004\221\274<Z63\274\374\210:\272\025`h\274I=\314\275\375{\307\274\301\320\250\275[\340\213\275mk\212<%d\230\274!\372m\275\345\340\304=\213\224\272<\003\372\376\272\321\254|\275!i\022\274)(\357\275\002\\\316\272\232!\317<8:\323\273d\277\270\274\273\033\333<\225\253\310=\016\253\342\274\351(!=\300\304\215\275\252\351X\273\332\341\232\273\326\361u<\227R\215\274\203\363u=\337\374\203=\261\274f\275\235\276\\=\313_\005>j\302\017\275,s\321<\026y\212\275\377\325\275\2742\021v\274J\206\247\275\277\001\013<\344\304+=\340D\245=\234\240\212\275QQ%=l1[<:\225\000\276o!\204\274\205\304\317\275\177\036\252=\371\361\006\275V\364v=0\023\262\274e \021\2761R\221\275\347D\211;\266H.\275Z\316j\275K\253\274<vh!=\230\220\202\274f2\220:c\335W;\205\013t=\016\376\251<\027\277\251<\235\243T<Q\320\023<A\222E\275t\035\304\273\362\302o\274\304\3614\273\245\227\315;\021e\330\273\363e\222=\314n\273\2740si\274vC\242\275\n\316\304=\244\251#\273yC\204\275\306\270o<\024U\241\274\271\017\257;\265\345@<R\362\013\275$;~=\010\014A<\331\313D<.u9\274\244\020\225\275\323\353K>>\177g\275}\201J;\321\345\211=\335}D\275\235@\370:S\365\005<kZ\377\273c\0038;\177\331\242=\256\246\002=;\226>\274\330\267\003\275WfE=\007W\221\275\237j\214<\\x\r\276I\241A\274\021\306\005<\307\236\207\274V(\237<\277\212\3469V\007\265=j\306\320\274m\362O\275\177K\246<\332(\316\274;u\247\272\376\006\205<\326\352\347<\353\274\024\275\251~\340;\026\246\210\275)Y\314:\316\304c\275\014\226)=\251\245\001\275\226~P\275\033\312\254<\207r\003\275\344CP\275\247\340\205\275\304\213\345\274\333\315\244<zq\243\274\351\037\260<\001\340v\275\376o\226\275\010RU=p\264\242=\234\023\301<[\224\307=Q\343\202\274\223\300\014\274\2142\373\275\250\272\210\273\222r\235<\024\370\351<\240\241\354<\001mZ\273\000\366\262:\225\317\266<\034yI=O\222]=\241\032\034\276\254\227Y\274\230\3528\275\375\3311\275\347\341O\275\002\223\"\275\226\'\227=\2127\370=PYA=\337L\341:\323\235\t\275\301\371\313\274Av\226=}\243\324\274\032\325\002\274{\037W=@\034\032\2753\301\177\274\223\300\202\275\337\004`\275S\001U\274\n&\274\275\3477>=\231se\275\333@\204\273\373\257\177\274\212~\321<Q\236\034\273Fy\304\275*\222\232:\306.\301\274\262W\347\275h\241\374\274\245v\305;y@\245<\216\0036=\212`\007\274Y\032\230=8\222*\274\373\274y<\211\311\032\274\364i\206=\345\216\225=\360\321\241=\361\300\220\273(0\022\275\253\271\033=Q\311\346\272*\313\253\275-\260\273\274\203G\266\274\213+\316\274\031\020\025\275\247\322\212;\254N\233=\346\356h\275\264k\031\275Fj\367<\340\266\004\274\032\366\376\274\034\224\270\274\370o\035\275\210\340\n=\220\315\022=\241\343o\273z\027\326<\214\030i<\221\345#;V\344P<]\253\001\275\"\346B\275\231\361X<)/\252\274\325\257\023=\363\351\t<b\324\331\275F\235\206=p\211a<GL\030=[\222B<\262R\277\275B\242l=`{\246;22\271\275\257\244\212\274\203d\270\275\213\261\300\274\346\\\002\276\024\024\023\274\332\035\244\275\315^=<\260\001\367\274\002\344\355\274Z[\010=\215\242\266;%5\310=\232|\220\2744\254\211\273U\367\337\273\277\226\201=\361\305y\274\013\016\205\274\342\307\365:z\360\336\274\350;\001=\365\230#\273\177\322\372\275\367\030\001\276\257\232\270<\354\364\321=`-\315;\207A\275\275\320\035\024\275/(\223\275p\250\320<\005\336\277\275\212\340\"=Y\034-\275\346~_\275K\014\260\275i\331\336\273\2425\t=\017Z{\275A5X=\375j\010\275\264\304H\274\266\264\004\273\356G\253;\352\262\220\275B\321\023\274\236_\263\274\0046\354<\203\027h\275\350\303\321\275\200\021\307=\212,\240\275\202 `\272LpH\274=2\274\274o\354\341;_\323\255\274\230\330\272\275S\005o\2759\276\252\275\217d\312\2752\246%\275aS\330<\361\273\001=&A\005\275K\253\244\274P\002\224=\367\246\000<\203>\000<\225^\016\275\232\"S\2747K$=\247\\\002=\037\250\225=\035\270\372<H\360\033\275D\010\340\274\177l\2059.\\\350\274\310\005G\274\024\224\\\275\322\365\325\274\021\257\226\273d\332\367\274\244G\'\275\306[Q<\214/,\275\361\2042\274s\263\201:\021\nV\274\366\'\221<\\W\375\273\344\346\256<>63\274\203)\321=w4N=\017\336f\273\246)\261\274{\203N;\324mM\275MS\305\275#\345\202<\375e\254\275B\031\211\2731\300\202\274\355\246\232:\033\310\327<\263\250\035\275e*Q\275H\374$<L\357\235=\321\262F\273\276\205\024\276\247\355\225\275\033\260\360\275\343;\346\275\207T\221<W\370\037<]\301\345\274#\276\303=\373\3475\275C@;\275\372\227C\275\325\312\001\275.\264\013\275J\311\r\274\300\360\327<\0049\244\275\023\336\007\272\277Y\216\274\031\0307\275z\301\3769\322\032\270\273U\224\266;z\303\213\274\221\322\251\273Yz\276;~C\240\275\030\357\255\275\322K\302\275\240\340\'\276\025\373A\275[dN<\003\313\216\275\220\026\257\274\223\360P\275?j\205=H\237\262;\372\003\315;\222\250t\275\231\nm\274\227\352\262\275\'\231\274;[\374\037\275a:\\<U*\240\275\354\016L\275\306\262+\274eM\357\273\364MU<\206M#<tup\275\254\222y;\000\226\224=a\032\313\275V\200\317<\370\251\265\275\213\3677\275z\251\202<^\201\355=E\271B=\336p\224\274\264\347\254\275N\201\240<\327\354\032\276\360\356K\275\360\325\037=%\224\231<\304M\030\275@\266\237\274\203\331\207\275\024\351!\275\254\034\307\275\261 \356=\310&\204<\353<%=\032\025e<\246\312\037\2733\273\207\275]\302\024\276\313\'F=\317\371\202<\306\311\246\275\200\220\033>2G\007;\204q\257<\365\033\003<\256\246C\275_\301\003\275Q\031\030\2730\235\223\274\261\210\304<\315\235\327<y\'~<\237\017\252\275\237\240+=\024\331\354<n\374F<R\222\006\276|6\013\2761\274\346\274\314Es\275\032\337R>\210\305\217\274\317D\361<\0360\210\275\316\205-\275\305\311\203<\3448:=\260@\226=h\336R;7O`\275D\317\227=\037\377/\275u\237\010>%E\246<\030\316b\275\241V2=\364\200\033\275\'\344D=p\264\351<\230\3301\275\006Ga>\260O\313\274\341\037v\274T\231Y\275\315\366@=\342\037B\275\215\010\266=\210\376\305\274h\322a=3*g\275f|\036\275\005\232\216=\264\341\263;\245\224x=\366\256\244<\343\256M<\245\225\205=k\227\017<\276\260\363\275\374\354\306<\265\035\364\274\340\312\032\273^8y\275lKF\274B\255S\274\373\203[<\214\300\316<7h\037\276\236\252\005=\010\t\026\275\311\326\017=\316_\022\275\314\306\346\274\266\214\351\274\331\005\273\274\356\t\256<\306\224\025\275k\036W\275[\345\360=\352_\030=\372{\321\274\006\031\202;\316\313\007=\306\237M\274\002`\370\274|\370\256\275\345N\212=\304k|:\027%5<\202\300\224=\025\300\035\276\244O\311;\256o\205\275-3\314\274\273\203\275<\304\3439\275CZX=`\343\361\272\214Yn=/\347\315<PAY9\214\354\013<\217\000\307\275\212i\032\275\327\3111<\225\303\304\270\362\370\213\275\337\274`\275=/\272<\341\013&<\032hl;\242\252\201<OR\247=3\004\261=\230C\246=\033e\255=mD\032\276\374\256\306<\343\202\307\274\227u\003\276 \307\006=\345j\256=\372j.=\252\026\331\274-=\256\274X>1=\275\361\235\275\\\t\037=\264\025\003\27551+<\317\332\326:\'\023v\275\271)i\275\375\324\223<o\033\272\275v\010\200=\036\0366=\021\300(=yv\246\274\231\336\023\274\234\216\246\275\030\016\201\275\267\'<=\021S\307\274u\342/\274\261\371\030>?\232,\275P\201\213\275\215\270\335<\334\022\035\275\246\222\356\274g\275\232\275Ld\023\274\225\332\273<H&1\2751A\302\275\341\365\005\275 O\200<t\312\227\274\274\336\035\276m\230l<\365=\223<\032\317\360\273u\022\326:\377\361\330;wg\333\274\004h\256\274\2639\013\275\036\315\205=\355I\371\274\350\317f\275\312\354\251<A\202\353<\217\255\300\274-\255\323<\246\252\333<\026\371\206\2745\"|\272Y\2644\275\017\256:<\371\004\361;}\033\030=\336\304\310\272\313;T=\324\037\025\275\030\300G\275@\021\305\275~,\r=;\367a\274\201\010\001\274\205\345\266=\237\003\275\275\032\306O\274\000\201\307\273\307\326\025<\321\367d;\032zn\273`\334\352;\340\256m\275\247\375\024\274F\212\275<OY\202\272\303\276\222\274\315&\223\275L\226\202<\273\032\264=\320\2055=\277\003\377<7\366a\276\326\270\355;d^\333\275r\253m\275K\262\n\275\217Z\206=:&\300<\246\220\250\275O\265\024\274\202n\263\275\3111\207;\'\330\367:\312c|<\247O\210\275\331\333T\275\327W\000\275\032\314\016={\334\\=\260D\324<:\231s<\377\326%<Cq1\275,.\177\275a\301\221\275\277\226,=\317\342\336\2750_\203=;\225O\272Z\200\203\273WS\022\275jJ\300\275\302\t\231=\247\037\247<\311\356J=\013\235%\276\031i\213\275P\347\247\274/\233\352\274l>\362<]\213\230\273nj\200\273\372p\317<\227\211\2409\277\200\022\275-\274\272<\313i8\273\305\260\373\273j\346\004=\235\231\026<O\254\314\275\225\217\035\2753\356\353:\275\212\317<\357\360Y\274)\267\320\272\242T\005\274\205\261\326;EA6\275\"\255+=W\272\205\274\263\262\245=\326\2402;v\200\362\274%\2075\275a\324\245\275\304\242c<c?N\2751Ug=@?^=w\\\014=\313j\202\275[\364\210<\201\201\215\275\311o\316\273\260\306\037\275yW\307\274(d\244\273\004\242\313<\367\372\006\275\310N|\273\333\rn;\030\261\332\274#h\344<h\003\233\27572{<\014\320\233<\311s\006<\325\351\331<\372\224\377\274\030\231\211<\004aQ=u^\031>\371\242,;2\025\005\273\226\271\223<\341w\225\275\272\310\353<,\363\000\275\354\367y\274z\235\366\275\341\205\353\2749\035\\:\247\233\006=\225XL=a\344\361<\204?(<\256\351\270\275\252}\214\275H\373\305\274\215\270\217<L_\274=\023[\022=\005\266\334\275\031 \275\274\351\233\225\275\215n\277=\366z\273\270\324\303A\275\267z\241\275\335\013k\274%\031\246\275\3036o;\303\027T\275\252Z\033\275Z\277\255=j\205\271<\207\234\021\273\374wV\2756\200\242\275\354\320.\276\236\333\351\275LcR\275\035\304Z\2747\026\344\274R\003\357\273x\216\021<\017Y\002<\261\212g\275\205K\360\275\202\261M<\365\020\240\275\355$|\274\314\345R\272g\353k<w\363\301=\"\363\376={\034\234<\317\353~=\023f/\276\200\260\010\275\026\255\210=\0305\362=\r\340#<\031fu=Q\260\232<\010\013\020\2760\"\003\276m\310\235=S\006\237\274%Y\321=8\t/\275\251\265\345=\013}\307<(\363\256\275B\212G\2740j\210\275\031\275\215;\376\251\245\275\3262,\272\246\205.<\206\321\177\274\221j\234=dK=\275\335@\245\275\014\267\373<\376\357\013=/-\231\274m\\\211=\275!n\275\000\332\313\2749;)<\346+B\274>&\365\275\004\347a\275\216\024w\274\t\215T<\366\2537=\016\252\236\275\316\271\245\275\264w\374<\313\237y;\231%\252\276\361\347\206\275\362\244\314=\334\'k=\252ol:\312\201\261<\003\\><\301\335N<\233t\362\2758\211\022>&&\310=R\357p=A\235\'=\"\t\177\275[/\334\274\315\002Q\274\373T\351<\325\035+=\356^\032<i\224\352<${\237<G\274\254\274\234K\363\274&\260\212\274\251us\275\2172\006\2754\177\005\276\2736\220\275\024Nc\275\037\325\230\273\344\n\330\275Jw(\275\t<\273\275\'&\200\275I\'!\275rL\022\275\211<\007\274 \226(=\366]\027\275\177!S\275\323\332\343\274\010\250\006=\342\035\216\274.\346/\275\263\364\272\275V\231\321\274\364be=t8\036\275\022\0007<\256S\204\275\002/L\276*\'k=D\232\257\275f\323\346=\312\374\007=\001\322{\274\322\245\215=|\376h\275\347\311\031\274\305\270\314=[\261\017>V\326k=n\364\355\275\036\006R\274\350\271q\275\277E\230=\240\326\230\274\374Q\203<\017\260\231=\262\307\000\275\330\305\200\275!+\214<N\365!=4_\315=\235\315\231\273E\276\001=\301D\322\274\211\330\246=i{\225\275.\233\265\274|\343\265<\370\371Z\274\026Vd\275\265\215j=\"U\203\273\366\274 ;\030\227\333=\377\250\200;\236b\235=PQ\315<\237\362f\274\333\322$\276\302\370\247=\356\203]<!OK\273\365r\013\275^\250i\276\311\326\034\275 \232\031=\217\334p=a\014\311\273\'W2\274.\340V:\005\320J;1?\210\275\026\t\200=N\\\242<B\335\024=\256\n\234\273\225\204\231\273\007\005g\2744 \253<\023p\237;\242\366\216\274\266<\300<\231\337\005\275Gt3<J6\261\274O\364r\274=\243\354\274\207\004 =gxj\275\212\303,\275\320\255\316\275_I\375\274\200\302-=\270\335\301\274\020\375\204\275\337a\005\276?@\310\273J\270\217\274\343\271\362\274\371\352\020<\322k\341<\"]9<\206\347\026<2\366\301\274\215\352p=X0\300<\275,\357\273\323k\256\275\211.\003;\276\037\200\273\335\364\027<\234\250c\275\205}\343;\224\017\344\275\271\271F\275\271\232A\274p\253*<-IN\273\265\306\233:\261\0002=7{Y=\362/\022=L\351\005\275Yz\025\276#\341n;BzU\274kg\003=,\305\226\275<\001\237<\332O4\274\177\004\360;\351\315\017=\016\210\224\274b\265\270=] \333\2752\376@<p[\020\275\342Z\233\274;J6>\311\236\277\274\277D[=\nV\223\273x\350{=.\331\271\274\216P\336\273K\304c\275\351\330n<\217\242\302\275\003\376\234\274\301~\245<6\256\220\275\200\240\377\273b!4\275U=\3368H\235e\275J\252\200\275\017l\247\273\342!\333=\237\210\215\274K\312+\275\004\346\263\274\252`o\275\254\006\341\273Z\377v\274kM\t\274\\1>=\271|(:\306\276\007=\365#+\274\255t\306;g\343\306<a\240e\275M\207\001\274+L\275\274\377\306<:\226i\273\273 \016\243<\322u\340<\243\350\r\275\000l}<\266)\004;\177<F=\211\346\017\275_\222?<\200\033\203<\235\036\256\274\207\226\350\274%\226\317\273\277\266j<<\223\235\274\0040\236<\225\235&=\361\341\342\274\241\362[:y\244%\274]\244q\275a\314\035\275\370\017\020\274z\001\215\275\251\013X;/\271w\274\234\027\006\275-D\007=\336\216\301;\354\357 \275\\V*\275o\014\343<%\354\373<Cy\371\275s-\241\273\246\302\217\2751\212\210=\247b\271\274p\035\250=A\005\232\272wn\262\275nQ\253\274\301\207#=B\005\260\272\204\227\347\275\016n\304<\202i\233\275qds\2759\037\352<\276!\310<\026~\363<\336\367\006=\265\304\263\274\242\262\001=\266\237\007=\365\333\273\275\347\321$\275?\303\256=xQW\275\233\377\014>\"#\354=E7\000\276\243\013\244<x\214\202\275n\262\000\274\266M\226\275\013\206\367=\006f*\276\037\027\240\275\235\305\370\274\257\251\274\275\302N\322\274C\020\333\275\251x\224\275\032\371\275\273\031ef=l\363\267=\222\021;=\314\277\252<\014\376\227<,P\264\274W#\336\274\224\010\353=\214\341,<[\262\317=Q,\327\273\324\304\242<I\177n<\306Gg:N\214\264\273\263\272\033=\357\357W\273\264\340\277;\003\275\333;\375\377\036=\215+\250<$\336\330<\236\374\251=\326:\013=\322\303\232\274\324&t\275\202\247\226\2742\'i<\362\367\211\275\213\247Z\275m0\001\275Y}\372\272\213\350\206\275\303\3103\275a-\375\275\237Fn\275D?\352;\362\214\322\275n/;=3\245\215=/\354i\275--R<n\214@=A\232=\275\237l\315\274\232\226S\275\353\202\256\273\271\027;<p\371.<\004\347\230\275\243_,\275\356\314\247\274W1\211\273\026\003\316\274xwh\275\347pW\276x\016D\274\256x\334\274\267\355\371<\025V\205\275\303i\307<\351\326-\275\213\372\266\274\010\364\216\275\302\3355=>\240\014\275\3774\241=\250\272\274\275\013K[\275G\356\342\274Q\312\317\274\322\252{\274\377\301\037\275]tk=\177\336\211\274J\021\357=*y\272\275n?\376\274\313\311k<B1/\275\033\261\027=\000\023\262\2752\347\227=\326\353\002=\255\352\002<\223}\000\273P`\340\275\322\2046<&\\J\276aM\230;\003;.\274\346\370k=\267\231\345\271U(\204=K?\005\274!\033\265<+y\307\273&4%>=\2127;d\001+=\216?K\274\220\305\201=ur\261\272S`\034=d\316\030=i\025]>\352m\373\274\341 